unsigned char model_tflite[] = {
  0x1c, 0x00, 0x00, 0x00, 0x54, 0x46, 0x4c, 0x33, 0x14, 0x00, 0x20, 0x00,
  0x1c, 0x00, 0x18, 0x00, 0x14, 0x00, 0x10, 0x00, 0x0c, 0x00, 0x00, 0x00,
  0x08, 0x00, 0x04, 0x00, 0x14, 0x00, 0x00, 0x00, 0x1c, 0x00, 0x00, 0x00,
  0x8c, 0x00, 0x00, 0x00, 0xe4, 0x00, 0x00, 0x00, 0x70, 0x0b, 0x00, 0x00,
  0x80, 0x0b, 0x00, 0x00, 0x04, 0x11, 0x00, 0x00, 0x03, 0x00, 0x00, 0x00,
  0x01, 0x00, 0x00, 0x00, 0x04, 0x00, 0x00, 0x00, 0x42, 0xf4, 0xff, 0xff,
  0x0c, 0x00, 0x00, 0x00, 0x1c, 0x00, 0x00, 0x00, 0x3c, 0x00, 0x00, 0x00,
  0x0f, 0x00, 0x00, 0x00, 0x73, 0x65, 0x72, 0x76, 0x69, 0x6e, 0x67, 0x5f,
  0x64, 0x65, 0x66, 0x61, 0x75, 0x6c, 0x74, 0x00, 0x01, 0x00, 0x00, 0x00,
  0x04, 0x00, 0x00, 0x00, 0x90, 0xff, 0xff, 0xff, 0x0a, 0x00, 0x00, 0x00,
  0x04, 0x00, 0x00, 0x00, 0x08, 0x00, 0x00, 0x00, 0x6f, 0x75, 0x74, 0x70,
  0x75, 0x74, 0x5f, 0x30, 0x00, 0x00, 0x00, 0x00, 0x01, 0x00, 0x00, 0x00,
  0x04, 0x00, 0x00, 0x00, 0x4e, 0xf5, 0xff, 0xff, 0x04, 0x00, 0x00, 0x00,
  0x0c, 0x00, 0x00, 0x00, 0x6b, 0x65, 0x72, 0x61, 0x73, 0x5f, 0x74, 0x65,
  0x6e, 0x73, 0x6f, 0x72, 0x00, 0x00, 0x00, 0x00, 0x02, 0x00, 0x00, 0x00,
  0x34, 0x00, 0x00, 0x00, 0x04, 0x00, 0x00, 0x00, 0xdc, 0xff, 0xff, 0xff,
  0x0d, 0x00, 0x00, 0x00, 0x04, 0x00, 0x00, 0x00, 0x13, 0x00, 0x00, 0x00,
  0x43, 0x4f, 0x4e, 0x56, 0x45, 0x52, 0x53, 0x49, 0x4f, 0x4e, 0x5f, 0x4d,
  0x45, 0x54, 0x41, 0x44, 0x41, 0x54, 0x41, 0x00, 0x08, 0x00, 0x0c, 0x00,
  0x08, 0x00, 0x04, 0x00, 0x08, 0x00, 0x00, 0x00, 0x0c, 0x00, 0x00, 0x00,
  0x04, 0x00, 0x00, 0x00, 0x13, 0x00, 0x00, 0x00, 0x6d, 0x69, 0x6e, 0x5f,
  0x72, 0x75, 0x6e, 0x74, 0x69, 0x6d, 0x65, 0x5f, 0x76, 0x65, 0x72, 0x73,
  0x69, 0x6f, 0x6e, 0x00, 0x0e, 0x00, 0x00, 0x00, 0x88, 0x0a, 0x00, 0x00,
  0x80, 0x0a, 0x00, 0x00, 0x34, 0x0a, 0x00, 0x00, 0x14, 0x03, 0x00, 0x00,
  0x00, 0x03, 0x00, 0x00, 0xb4, 0x02, 0x00, 0x00, 0x2c, 0x02, 0x00, 0x00,
  0xb4, 0x00, 0x00, 0x00, 0xac, 0x00, 0x00, 0x00, 0xa4, 0x00, 0x00, 0x00,
  0x9c, 0x00, 0x00, 0x00, 0x94, 0x00, 0x00, 0x00, 0x74, 0x00, 0x00, 0x00,
  0x04, 0x00, 0x00, 0x00, 0x02, 0xf6, 0xff, 0xff, 0x04, 0x00, 0x00, 0x00,
  0x60, 0x00, 0x00, 0x00, 0x10, 0x00, 0x00, 0x00, 0x00, 0x00, 0x00, 0x00,
  0x08, 0x00, 0x0e, 0x00, 0x08, 0x00, 0x04, 0x00, 0x08, 0x00, 0x00, 0x00,
  0x10, 0x00, 0x00, 0x00, 0x24, 0x00, 0x00, 0x00, 0x00, 0x00, 0x06, 0x00,
  0x08, 0x00, 0x04, 0x00, 0x06, 0x00, 0x00, 0x00, 0x04, 0x00, 0x00, 0x00,
  0x00, 0x00, 0x00, 0x00, 0x0c, 0x00, 0x18, 0x00, 0x14, 0x00, 0x10, 0x00,
  0x0c, 0x00, 0x04, 0x00, 0x0c, 0x00, 0x00, 0x00, 0x50, 0xa0, 0x7e, 0x2f,
  0x32, 0xd4, 0x53, 0x47, 0x02, 0x00, 0x00, 0x00, 0x02, 0x00, 0x00, 0x00,
  0x04, 0x00, 0x00, 0x00, 0x06, 0x00, 0x00, 0x00, 0x32, 0x2e, 0x31, 0x38,
  0x2e, 0x30, 0x00, 0x00, 0x6e, 0xf6, 0xff, 0xff, 0x04, 0x00, 0x00, 0x00,
  0x10, 0x00, 0x00, 0x00, 0x31, 0x2e, 0x31, 0x34, 0x2e, 0x30, 0x00, 0x00,
  0x00, 0x00, 0x00, 0x00, 0x00, 0x00, 0x00, 0x00, 0xd0, 0xf0, 0xff, 0xff,
  0xd4, 0xf0, 0xff, 0xff, 0xd8, 0xf0, 0xff, 0xff, 0xdc, 0xf0, 0xff, 0xff,
  0x9a, 0xf6, 0xff, 0xff, 0x04, 0x00, 0x00, 0x00, 0x68, 0x01, 0x00, 0x00,
  0x0e, 0xfe, 0x31, 0x3e, 0x08, 0xc1, 0xa0, 0x3e, 0x44, 0x5a, 0x9f, 0x3e,
  0x6b, 0x3a, 0x9c, 0x3e, 0x14, 0x16, 0x02, 0xbe, 0xb2, 0xfa, 0x65, 0xbc,
  0x7d, 0x41, 0x25, 0x3e, 0x6e, 0x71, 0xce, 0x3d, 0x45, 0x6a, 0x3c, 0x3e,
  0xdf, 0xce, 0x90, 0xbe, 0xd3, 0x93, 0x05, 0xbb, 0x03, 0x6a, 0x2e, 0xbd,
  0x44, 0xdc, 0xad, 0x3e, 0x61, 0x9d, 0x0e, 0xbe, 0x69, 0x3f, 0x55, 0x3e,
  0xce, 0x39, 0xfc, 0xbc, 0xb1, 0xb4, 0xaa, 0xbc, 0xa6, 0x65, 0x1a, 0x3e,
  0xae, 0x24, 0xe0, 0xbd, 0x90, 0x06, 0x3c, 0xbe, 0x5b, 0x76, 0xa3, 0xbe,
  0x5a, 0x1b, 0x25, 0x3e, 0xbb, 0xa6, 0x0d, 0xbe, 0x14, 0x41, 0xcf, 0x3d,
  0x9d, 0x37, 0x9e, 0xbe, 0x87, 0x95, 0xcb, 0x3d, 0xf2, 0x59, 0x5a, 0x3e,
  0x90, 0x20, 0x82, 0xbd, 0x16, 0x79, 0x3d, 0xba, 0xde, 0x2e, 0xe8, 0xbd,
  0xe6, 0x3e, 0x31, 0xbe, 0x98, 0x09, 0x16, 0x3d, 0xa0, 0xd1, 0x15, 0xbd,
  0x46, 0x95, 0xbb, 0x3e, 0x67, 0x0e, 0x87, 0x3e, 0x60, 0x00, 0x3e, 0xbe,
  0x14, 0x98, 0x76, 0xbe, 0x12, 0x24, 0xb6, 0x39, 0xa0, 0x74, 0xd7, 0xbd,
  0x1f, 0xf1, 0xf8, 0x3e, 0x7d, 0xbe, 0x93, 0xbe, 0x23, 0x12, 0xad, 0xbe,
  0x97, 0x6a, 0x04, 0xbe, 0xa4, 0x63, 0xab, 0x3e, 0x6d, 0x6a, 0x17, 0xbe,
  0x96, 0x40, 0x38, 0x3e, 0x04, 0xf8, 0x33, 0xbe, 0x12, 0x42, 0x07, 0x3e,
  0x1b, 0xd3, 0x84, 0xbe, 0xe3, 0xa0, 0x28, 0xbe, 0x5f, 0x42, 0xe6, 0x3d,
  0xea, 0x0c, 0x8e, 0x3e, 0x39, 0xda, 0xe3, 0xbd, 0x44, 0x28, 0xb8, 0xbd,
  0x2e, 0xc3, 0x0b, 0xbf, 0xf2, 0x8d, 0x4a, 0x3e, 0x7d, 0xce, 0x8e, 0x3d,
  0xe0, 0x3d, 0xb2, 0xbd, 0x40, 0x40, 0x89, 0x3e, 0xff, 0x1e, 0x9d, 0x3e,
  0x09, 0x1a, 0xbf, 0xbe, 0x10, 0x14, 0xf0, 0x3d, 0x6f, 0x48, 0xbe, 0xbe,
  0xbb, 0x73, 0x04, 0xbf, 0x9c, 0xce, 0xc8, 0x3c, 0x0d, 0xfe, 0x08, 0x3e,
  0x1f, 0xcd, 0x81, 0xbe, 0x47, 0xe0, 0xed, 0x3d, 0x63, 0x3d, 0xfe, 0xc0,
  0xe1, 0x24, 0x8b, 0xbd, 0xc6, 0x6a, 0xf5, 0xbd, 0xfb, 0xce, 0xb1, 0xbd,
  0x88, 0xe3, 0xcb, 0xbe, 0xcf, 0xd1, 0x0d, 0xbe, 0xec, 0xf8, 0xa7, 0x3d,
  0xd5, 0x9d, 0x06, 0xbf, 0x4d, 0xe3, 0x82, 0x3e, 0x19, 0x24, 0x6e, 0x3d,
  0x4d, 0x0f, 0xac, 0xbd, 0x81, 0x16, 0x61, 0xbe, 0x3c, 0xdc, 0x01, 0x3e,
  0xee, 0x2b, 0xb5, 0xbd, 0xc7, 0xe7, 0xa2, 0x3d, 0x00, 0x25, 0x24, 0xbb,
  0xe3, 0xc1, 0x0b, 0xbe, 0xc4, 0xec, 0x15, 0xbe, 0x6d, 0xc5, 0x26, 0x3e,
  0xa9, 0xfe, 0xb0, 0x3e, 0x79, 0x0a, 0x72, 0xbe, 0x44, 0xcd, 0x50, 0x3e,
  0x0e, 0xf8, 0xff, 0xff, 0x04, 0x00, 0x00, 0x00, 0x78, 0x00, 0x00, 0x00,
  0xd9, 0x1b, 0xb6, 0xbf, 0x70, 0x4a, 0x26, 0x3f, 0xad, 0x34, 0x67, 0xbd,
  0xad, 0x79, 0x42, 0xbe, 0x19, 0xdc, 0x7b, 0x3e, 0x06, 0xe1, 0x8a, 0x3e,
  0x9f, 0x67, 0xa7, 0xbd, 0xa3, 0x53, 0x07, 0xbc, 0x73, 0xee, 0x8d, 0xb9,
  0x58, 0x93, 0xbf, 0xbd, 0x00, 0x00, 0x00, 0x00, 0x84, 0xc7, 0x99, 0x3f,
  0x9d, 0x8d, 0x8f, 0xbd, 0x74, 0xdc, 0x0f, 0xbd, 0xf1, 0x25, 0x59, 0xbe,
  0x75, 0x69, 0x22, 0x3e, 0x92, 0xce, 0x2e, 0xbe, 0x3c, 0x47, 0xc4, 0x3f,
  0x72, 0x5d, 0x1b, 0xbf, 0x34, 0x56, 0xbd, 0x3e, 0x00, 0x00, 0x00, 0x00,
  0xa6, 0xc9, 0xd3, 0xbe, 0x16, 0x17, 0x45, 0x3f, 0x74, 0x99, 0x83, 0xbd,
  0xb7, 0x2d, 0x7f, 0xbd, 0xc5, 0xfc, 0x13, 0xbf, 0x06, 0xce, 0x47, 0xbe,
  0x5a, 0x66, 0xf5, 0xbe, 0xe4, 0x84, 0x16, 0xbe, 0x04, 0xaa, 0x09, 0x3f,
  0x92, 0xf8, 0xff, 0xff, 0x04, 0x00, 0x00, 0x00, 0x3c, 0x00, 0x00, 0x00,
  0xe2, 0x22, 0x7f, 0x3e, 0xb7, 0x18, 0x33, 0xbf, 0x18, 0x79, 0xc1, 0xbd,
  0x00, 0x00, 0x00, 0x00, 0x00, 0x82, 0x3a, 0xbf, 0xe3, 0xb4, 0x38, 0x3d,
  0x13, 0x45, 0xf1, 0xbc, 0x76, 0x48, 0x44, 0xbd, 0xc5, 0x4c, 0x19, 0x3e,
  0x00, 0x00, 0x00, 0x00, 0x00, 0x00, 0x00, 0x00, 0xd1, 0x5b, 0x08, 0xbf,
  0x00, 0x00, 0x00, 0x00, 0xbd, 0xed, 0xaa, 0x39, 0x3a, 0x9c, 0x34, 0x3f,
  0xda, 0xf8, 0xff, 0xff, 0x04, 0x00, 0x00, 0x00, 0x04, 0x00, 0x00, 0x00,
  0x58, 0x49, 0x38, 0x3f, 0xea, 0xf8, 0xff, 0xff, 0x04, 0x00, 0x00, 0x00,
  0x08, 0x07, 0x00, 0x00, 0x88, 0xa0, 0x1a, 0xbe, 0x50, 0x0c, 0xc7, 0x3e,
  0x41, 0xb7, 0x51, 0x3e, 0x8d, 0x8a, 0xc8, 0xbd, 0xbc, 0xfc, 0xb1, 0x3e,
  0x80, 0x67, 0x50, 0x3e, 0xdb, 0x8c, 0x80, 0xbf, 0x13, 0xbd, 0x66, 0xbe,
  0x81, 0x7c, 0x98, 0xbe, 0x45, 0x6b, 0xa8, 0xbd, 0xc8, 0xe2, 0xb1, 0x3e,
  0x4e, 0x47, 0x6d, 0x3c, 0x84, 0x99, 0xb0, 0xbd, 0x66, 0xeb, 0x3b, 0xbf,
  0x88, 0x24, 0xa2, 0x3d, 0x60, 0x1d, 0x49, 0xbd, 0x3b, 0xcd, 0x69, 0xbe,
  0x14, 0x27, 0xd0, 0x3f, 0x5d, 0xab, 0x93, 0x3e, 0xc5, 0xb6, 0xb9, 0xbc,
  0xfb, 0x92, 0xb3, 0xbe, 0x3e, 0xb7, 0x15, 0x3e, 0x10, 0x8a, 0x9d, 0xbc,
  0x0e, 0x5b, 0x58, 0xbf, 0x79, 0xbd, 0xc8, 0x3c, 0x31, 0x81, 0x7a, 0xbf,
  0xb4, 0x49, 0x70, 0x3e, 0x99, 0x70, 0xac, 0xbe, 0x72, 0x9e, 0xb7, 0x3e,
  0x26, 0x6e, 0x18, 0xbd, 0x80, 0x10, 0x95, 0x3e, 0x7b, 0x43, 0x91, 0xbe,
  0x7b, 0x50, 0xd3, 0x3d, 0xec, 0x5c, 0xf7, 0x3d, 0x39, 0x46, 0xae, 0x3c,
  0xd5, 0xda, 0x90, 0xbe, 0xab, 0xdf, 0x42, 0x3e, 0x74, 0x35, 0x8c, 0xbe,
  0xd4, 0x4e, 0x06, 0xbe, 0xcd, 0x6a, 0xa3, 0xbe, 0x63, 0x47, 0x70, 0xbe,
  0x90, 0xb9, 0xc3, 0xbe, 0x39, 0x02, 0x93, 0x3e, 0xa7, 0x91, 0xb0, 0x3d,
  0xdc, 0x94, 0x93, 0xbe, 0xd1, 0x15, 0x2e, 0xbe, 0xc8, 0x14, 0x8b, 0xbd,
  0x8c, 0xb6, 0xf3, 0x3e, 0x3d, 0xf7, 0xdd, 0x3e, 0xbf, 0xed, 0xa2, 0x3d,
  0x4e, 0x79, 0x16, 0xbe, 0x85, 0xa3, 0xb2, 0x3e, 0x18, 0xc7, 0x90, 0xbb,
  0x4e, 0xdd, 0xb1, 0x3e, 0x3d, 0x90, 0x8a, 0x3e, 0xcd, 0xfc, 0x3d, 0x3f,
  0x0f, 0x0d, 0x4a, 0xbe, 0x79, 0x5a, 0xaf, 0xbd, 0x43, 0x3c, 0xb9, 0x3e,
  0x32, 0x8d, 0x22, 0xbe, 0x19, 0x95, 0x99, 0xbe, 0xb0, 0x6f, 0xd9, 0xbe,
  0xf9, 0x0f, 0x1b, 0x3e, 0x3d, 0x8b, 0x4d, 0xbe, 0x02, 0xfe, 0xc6, 0x3d,
  0x51, 0xeb, 0x1e, 0xbe, 0x02, 0x4d, 0x0c, 0x3e, 0x83, 0xa6, 0xd3, 0xbe,
  0x25, 0xa5, 0x00, 0xbe, 0x57, 0x5d, 0xaf, 0xbe, 0x10, 0x55, 0xc3, 0x3c,
  0x0a, 0xd0, 0xe9, 0x3d, 0xaa, 0x50, 0xb9, 0x3e, 0x0b, 0xed, 0x91, 0xbd,
  0xfb, 0xe5, 0xfa, 0xbd, 0xf3, 0x03, 0xc2, 0xbe, 0xe7, 0x90, 0x46, 0xbc,
  0x4a, 0x71, 0xf3, 0x3c, 0xa3, 0x3f, 0x9d, 0xbe, 0xbd, 0xc6, 0x3e, 0x3e,
  0x90, 0x0d, 0xbb, 0xbc, 0x29, 0x59, 0xd3, 0xbe, 0x87, 0x65, 0x9a, 0x3d,
  0x62, 0x3a, 0x92, 0x3e, 0x19, 0x42, 0x95, 0xbe, 0xaf, 0xbf, 0xdc, 0x3d,
  0x7d, 0x07, 0x6f, 0x3e, 0x2c, 0x22, 0x85, 0x3e, 0x23, 0xd0, 0x6e, 0x3e,
  0xab, 0x7d, 0x4e, 0x3e, 0x20, 0xae, 0x20, 0xbe, 0x18, 0xcd, 0xdb, 0x3d,
  0x4c, 0xc5, 0xa7, 0x3e, 0x20, 0x3e, 0x48, 0x3e, 0x7e, 0xce, 0x8e, 0x3e,
  0xc8, 0xfa, 0x53, 0x3e, 0x7c, 0xaa, 0xb2, 0x3d, 0xa9, 0x72, 0x0b, 0xbe,
  0xe2, 0xca, 0xa5, 0xbe, 0x94, 0x1a, 0xc5, 0xbd, 0xb2, 0x51, 0x8b, 0x3e,
  0x9c, 0x08, 0x4b, 0xbe, 0x75, 0x84, 0x3e, 0xbe, 0xa0, 0x70, 0x09, 0x3e,
  0x70, 0xd5, 0x82, 0xbc, 0xb9, 0xa5, 0x91, 0xbe, 0x26, 0xc8, 0x14, 0xbe,
  0x20, 0x42, 0xa6, 0xbe, 0xc8, 0x64, 0x2b, 0xbd, 0xe4, 0x2a, 0xb1, 0x3d,
  0x82, 0xbd, 0x9d, 0x3e, 0xb2, 0x69, 0x7a, 0xbe, 0x00, 0x7e, 0x4d, 0xbd,
  0x00, 0xb9, 0x3f, 0x3c, 0xeb, 0xfc, 0x21, 0xbe, 0x26, 0x6d, 0xf4, 0xbd,
  0xd8, 0xf0, 0x64, 0x3e, 0xcc, 0x0d, 0xb0, 0xbe, 0x60, 0x31, 0x0f, 0x3e,
  0x97, 0x4e, 0xb1, 0xbe, 0x0a, 0x4e, 0x7b, 0x3e, 0x17, 0xf0, 0xe0, 0x3d,
  0x0f, 0xc9, 0x52, 0xbe, 0x3a, 0x70, 0x63, 0xbe, 0x4a, 0x3e, 0xc8, 0x3d,
  0x11, 0x38, 0xa5, 0x3a, 0xc2, 0x1b, 0x70, 0x3e, 0xfd, 0x7b, 0x78, 0xbe,
  0x88, 0x69, 0x96, 0x3e, 0x6b, 0x4a, 0x35, 0x3e, 0x4c, 0x4e, 0x04, 0xbe,
  0x9f, 0x7d, 0xdc, 0xba, 0x77, 0x2e, 0x56, 0x3d, 0x64, 0x91, 0x1e, 0xbe,
  0x05, 0x02, 0x74, 0xbd, 0xe5, 0x79, 0x62, 0x3e, 0x4a, 0x62, 0xb8, 0x3e,
  0x1e, 0xd7, 0x9e, 0xbf, 0xbe, 0x65, 0xe4, 0xbb, 0x63, 0x0a, 0x9a, 0xbd,
  0x00, 0xeb, 0x7d, 0x3e, 0x64, 0xe2, 0x65, 0x3e, 0xae, 0xc6, 0x3a, 0xbf,
  0x72, 0x38, 0xad, 0xbe, 0xc7, 0x40, 0x5a, 0x3e, 0x26, 0xd8, 0x6c, 0x3e,
  0xac, 0xd3, 0x69, 0xbe, 0xcf, 0x0a, 0x1a, 0x3e, 0x5a, 0x66, 0x84, 0x3e,
  0xf0, 0x88, 0xe2, 0x3d, 0x15, 0xd6, 0x89, 0xbe, 0xeb, 0x58, 0xca, 0x3d,
  0x35, 0x47, 0xa5, 0xbe, 0xa5, 0xd0, 0xb3, 0xbd, 0x17, 0x9c, 0x9d, 0x3c,
  0x4d, 0x86, 0xef, 0xbc, 0xff, 0x36, 0xba, 0x3d, 0xd6, 0x05, 0xb4, 0xbd,
  0x95, 0x24, 0x5d, 0xbe, 0x53, 0xf2, 0x35, 0x3c, 0x5e, 0x39, 0x6e, 0xbe,
  0xc7, 0x2f, 0x35, 0xbe, 0x33, 0x17, 0x81, 0x3d, 0x2c, 0xd8, 0x9d, 0x3e,
  0x08, 0x2f, 0xb6, 0xbd, 0xe6, 0x57, 0x7d, 0x3e, 0x4c, 0x44, 0x36, 0xbe,
  0x12, 0x17, 0x5c, 0xbe, 0xb8, 0x70, 0x69, 0x3e, 0x0c, 0xda, 0xa2, 0xbe,
  0xc0, 0x97, 0xac, 0xbe, 0x86, 0xd5, 0x73, 0x3e, 0xb0, 0x39, 0x02, 0xbd,
  0x3c, 0x9c, 0x6c, 0x3e, 0xbe, 0x37, 0xae, 0x3d, 0x5c, 0xce, 0x39, 0x3e,
  0x4e, 0x8e, 0x04, 0x3e, 0xf9, 0x26, 0x3c, 0x3e, 0xd0, 0x8b, 0xb1, 0x3e,
  0xc8, 0x9c, 0x93, 0x3e, 0x18, 0xf5, 0x18, 0x3e, 0xcc, 0x32, 0x98, 0xbd,
  0x7a, 0xea, 0x27, 0xbe, 0xd5, 0x07, 0x87, 0xbd, 0xf3, 0x44, 0x10, 0xbd,
  0x69, 0xb4, 0x92, 0xbe, 0xe4, 0xee, 0x03, 0x3d, 0x58, 0x03, 0x7c, 0x3e,
  0x8c, 0x39, 0xb7, 0xbd, 0x65, 0xf0, 0x6a, 0xbc, 0x3e, 0x85, 0x90, 0xbe,
  0x86, 0xc2, 0x3f, 0xbe, 0xe0, 0x91, 0xb1, 0xbc, 0x91, 0xc2, 0xaa, 0xbd,
  0xe0, 0x97, 0xf2, 0xbc, 0x30, 0x2d, 0xae, 0xbe, 0x85, 0x33, 0x6b, 0xbe,
  0x9e, 0xa3, 0x3f, 0x3e, 0xb3, 0x1a, 0xbc, 0x3d, 0x3e, 0x68, 0xb5, 0xbe,
  0x80, 0xe5, 0x5a, 0x3c, 0xac, 0xba, 0x91, 0x3e, 0x10, 0xa6, 0xa9, 0xbd,
  0x72, 0xcd, 0x7a, 0xbe, 0x14, 0xad, 0x20, 0x3e, 0x89, 0x6e, 0x2c, 0xbe,
  0x52, 0xfc, 0xc9, 0xbe, 0x88, 0xaa, 0xfa, 0x3d, 0xa0, 0x93, 0x96, 0x3d,
  0x96, 0xd9, 0x9e, 0x3d, 0x99, 0xfc, 0xa7, 0xbe, 0x7d, 0xb8, 0xe8, 0x3e,
  0xd6, 0xfd, 0xc3, 0xbe, 0xef, 0xda, 0x0b, 0xbe, 0xc8, 0xaf, 0x7f, 0x3e,
  0xac, 0x7e, 0x20, 0xbe, 0x33, 0xc0, 0x99, 0x3e, 0x7c, 0x67, 0x39, 0x3c,
  0xd5, 0x39, 0x8a, 0xbe, 0xe0, 0x41, 0x40, 0xbe, 0x5c, 0x24, 0xf2, 0xbd,
  0x60, 0x18, 0x35, 0x3e, 0x4c, 0xc6, 0xcb, 0x3d, 0xaf, 0x94, 0x8c, 0xbd,
  0xd0, 0x5d, 0x2c, 0x3d, 0x76, 0x8a, 0xb4, 0xbe, 0x9c, 0xdb, 0xbf, 0xbd,
  0xd2, 0xe8, 0x77, 0x3d, 0xd3, 0x4f, 0x11, 0xbe, 0x51, 0xdb, 0x92, 0xbe,
  0xc3, 0xe0, 0x83, 0xbe, 0x53, 0xd8, 0xfa, 0x3d, 0x98, 0xd9, 0x42, 0xbe,
  0xf3, 0x88, 0x08, 0x3e, 0xa8, 0x1d, 0x16, 0x3e, 0xa3, 0x4e, 0x66, 0xbe,
  0x5b, 0x28, 0x48, 0x3e, 0x90, 0xe6, 0x87, 0x3e, 0xf8, 0xd6, 0x56, 0x3d,
  0x30, 0xa0, 0x0f, 0xbd, 0x77, 0xe0, 0xa8, 0xbe, 0x60, 0x73, 0xc1, 0xbc,
  0xbb, 0x6f, 0xda, 0xbd, 0x2b, 0x13, 0xce, 0x3d, 0xc9, 0x67, 0xab, 0x3e,
  0x51, 0x9e, 0x87, 0xbd, 0x48, 0x2f, 0x44, 0xbd, 0x8a, 0x10, 0xa9, 0x3e,
  0xe8, 0x33, 0xbe, 0xbe, 0x88, 0xa8, 0xbb, 0x3d, 0xe6, 0xf5, 0x7c, 0xbe,
  0xd8, 0xe1, 0x5a, 0x3e, 0x5f, 0xdb, 0x82, 0xbe, 0x71, 0xa6, 0xaf, 0xbe,
  0x4b, 0xd8, 0x0d, 0x3e, 0x51, 0x9f, 0x81, 0x3e, 0x75, 0x39, 0x4d, 0xbd,
  0x6a, 0x5f, 0x9b, 0x3e, 0x08, 0xa8, 0xfa, 0x3c, 0x0b, 0x99, 0xdf, 0x3d,
  0x95, 0x0d, 0x6d, 0xbe, 0x4c, 0x0a, 0x22, 0xbe, 0x57, 0x4a, 0xb2, 0x3d,
  0x77, 0x1c, 0x8b, 0xbd, 0x0b, 0xf4, 0x91, 0xbe, 0x62, 0x91, 0xcd, 0xbe,
  0xee, 0x2e, 0x36, 0x3e, 0x8b, 0x39, 0xa2, 0xbe, 0x19, 0x9f, 0x0b, 0xbe,
  0x17, 0xce, 0x95, 0x3d, 0xe0, 0xb0, 0xcb, 0xbd, 0x40, 0x87, 0x2b, 0xbc,
  0x08, 0x06, 0x4e, 0x3d, 0xe0, 0x1a, 0xa6, 0x3e, 0xd3, 0x24, 0x9f, 0xbe,
  0xc5, 0x57, 0x41, 0xbe, 0x40, 0x1f, 0x2f, 0xbe, 0x99, 0x5b, 0xaa, 0xbe,
  0x32, 0xd2, 0x8e, 0x3e, 0xa3, 0x03, 0x7d, 0xbe, 0xd0, 0xc2, 0xed, 0xbd,
  0x78, 0x9c, 0x2d, 0xbe, 0x54, 0x14, 0x94, 0xbd, 0xe4, 0xa8, 0x29, 0xbe,
  0x60, 0x52, 0x15, 0x3e, 0x78, 0x0e, 0xa2, 0x3d, 0xe4, 0x7e, 0x1e, 0x3e,
  0xa2, 0x3b, 0x22, 0xbe, 0xd0, 0xea, 0x39, 0x3e, 0x47, 0x83, 0xa8, 0xbe,
  0x72, 0xd1, 0x8c, 0xbe, 0x6c, 0x6b, 0x2e, 0x3e, 0x08, 0xca, 0x34, 0xbe,
  0x42, 0xc2, 0xb7, 0xbe, 0x42, 0x0d, 0xa9, 0xbe, 0xe0, 0xc7, 0x15, 0xbd,
  0x9b, 0xe5, 0x28, 0xbe, 0x20, 0x11, 0x3e, 0xbc, 0x58, 0xbe, 0xfd, 0x3d,
  0x6c, 0xc6, 0xa5, 0x3e, 0x88, 0x12, 0x4e, 0x3d, 0x9a, 0x01, 0xa4, 0x3e,
  0x7e, 0x0e, 0x46, 0xbe, 0x76, 0xa2, 0xf7, 0xbd, 0x14, 0x38, 0xb9, 0xbe,
  0x40, 0x99, 0x9a, 0x3d, 0xbb, 0x3a, 0x42, 0xbe, 0x7c, 0x9b, 0xb0, 0xbe,
  0x34, 0xc2, 0x26, 0x3e, 0xb4, 0x6e, 0x1f, 0x3e, 0xe0, 0xb0, 0x26, 0x3d,
  0x71, 0xaf, 0xa5, 0xbe, 0xf0, 0x4f, 0x5a, 0x3e, 0x06, 0x39, 0x04, 0xbe,
  0xe0, 0xbe, 0x4b, 0x3c, 0x10, 0x9c, 0xdb, 0xbc, 0xff, 0xd6, 0x3c, 0xbe,
  0x0c, 0x4e, 0x8b, 0x3e, 0x05, 0xe5, 0xa7, 0xbe, 0xb0, 0x84, 0xd5, 0xbc,
  0x06, 0x0a, 0x35, 0xbe, 0x8e, 0x41, 0xb7, 0xbe, 0x67, 0xe1, 0xb1, 0xbe,
  0x00, 0x7e, 0x8a, 0x3a, 0xaa, 0x19, 0x82, 0x3e, 0x80, 0xe6, 0x9c, 0x3c,
  0xa0, 0xa5, 0x5c, 0xbd, 0x3c, 0x8e, 0x13, 0xbe, 0x68, 0xb0, 0x64, 0xbd,
  0x30, 0x0e, 0x4d, 0x3d, 0xed, 0x37, 0x89, 0x3d, 0x52, 0xb5, 0xc5, 0xbe,
  0x95, 0x97, 0xd9, 0xbe, 0x30, 0x13, 0x44, 0xbe, 0x72, 0xb4, 0xee, 0xbe,
  0x49, 0x9e, 0x68, 0x3c, 0x9d, 0x09, 0x6a, 0xbe, 0x87, 0xcb, 0xe2, 0xbe,
  0x5b, 0xbf, 0x56, 0x3e, 0xbc, 0xc7, 0xca, 0xbd, 0x72, 0xe8, 0x81, 0x3e,
  0x2f, 0xf3, 0x0c, 0x3e, 0x88, 0x21, 0x92, 0xbe, 0xac, 0xc2, 0xaa, 0x3e,
  0xdc, 0x5c, 0xe6, 0x3d, 0x4d, 0x12, 0x19, 0x3b, 0x89, 0x37, 0x9d, 0xbe,
  0x36, 0xe0, 0x5b, 0xbf, 0xe6, 0xe3, 0xc1, 0xbe, 0xf4, 0x5e, 0x75, 0xbe,
  0xc0, 0x5d, 0x33, 0xbc, 0x70, 0xe9, 0x82, 0x3e, 0x99, 0xf4, 0x1d, 0xbf,
  0xca, 0xdc, 0x9f, 0x3e, 0x6d, 0x6f, 0x3a, 0x3e, 0xaa, 0x9d, 0xfc, 0xbe,
  0x2d, 0xd3, 0x2d, 0xbc, 0xcc, 0x31, 0x20, 0x3e, 0x3e, 0x0c, 0xd6, 0x3d,
  0x45, 0x6b, 0xdc, 0xbe, 0x12, 0xc3, 0x9c, 0xbe, 0x88, 0xff, 0x88, 0x3e,
  0x11, 0x35, 0x0b, 0xbe, 0x78, 0x3a, 0x8c, 0x3e, 0x2c, 0x54, 0x5b, 0x3e,
  0xa8, 0xb9, 0x22, 0x3e, 0x70, 0x8f, 0xad, 0xbd, 0x90, 0x4e, 0x80, 0xbd,
  0x8b, 0xa4, 0xa5, 0xbe, 0x32, 0x8b, 0xfb, 0xbd, 0xc4, 0xdb, 0x3e, 0x3e,
  0xe6, 0x6b, 0x94, 0x3e, 0x14, 0x19, 0x8c, 0xbe, 0x20, 0x62, 0x6e, 0x3e,
  0xd8, 0xa1, 0x71, 0x3e, 0x57, 0xe5, 0x0e, 0xbe, 0xe0, 0xd6, 0x8d, 0xbc,
  0x70, 0xc7, 0xb6, 0x3d, 0xf4, 0x86, 0xe9, 0xbd, 0x0d, 0x4c, 0xba, 0xbe,
  0x44, 0x00, 0x87, 0x3e, 0x2e, 0x6d, 0x7b, 0xbe, 0x86, 0x70, 0x89, 0x3e,
  0xc7, 0xc3, 0x8d, 0xbe, 0xa0, 0x7b, 0x88, 0xbd, 0x34, 0xb8, 0xf2, 0x3d,
  0x7f, 0x6d, 0x85, 0xbe, 0x14, 0x39, 0x4f, 0x3e, 0x34, 0xeb, 0x46, 0xbe,
  0x0e, 0xdb, 0x69, 0xbe, 0xb4, 0xe7, 0x7a, 0x3e, 0xaf, 0x34, 0x01, 0x3f,
  0xd7, 0x88, 0x83, 0xbf, 0xda, 0x5a, 0x9b, 0x3e, 0xb4, 0x60, 0x6b, 0x3e,
  0x05, 0x16, 0x20, 0xbf, 0x56, 0x57, 0x93, 0xbd, 0x7f, 0x29, 0x3c, 0xbe,
  0x7c, 0x8d, 0x74, 0xbe, 0x12, 0x9c, 0x41, 0xbe, 0x24, 0xd9, 0xaf, 0xbd,
  0x4c, 0x6b, 0xad, 0xbe, 0x65, 0x7a, 0x1b, 0xbe, 0xa6, 0x3e, 0x97, 0x3e,
  0x77, 0x56, 0xb2, 0xbe, 0x18, 0x13, 0xba, 0xbe, 0x62, 0x91, 0x1c, 0x3e,
  0x7d, 0x67, 0x01, 0x3e, 0x0f, 0xcb, 0x35, 0x3e, 0x40, 0xa1, 0xe5, 0x3c,
  0x2c, 0x93, 0x1e, 0x3e, 0x5e, 0x69, 0x41, 0xbe, 0xd4, 0xa3, 0x07, 0xbe,
  0x11, 0x92, 0x54, 0xbd, 0x87, 0x5b, 0xb2, 0xbe, 0x14, 0x3b, 0x64, 0x3e,
  0xec, 0x55, 0xac, 0x3e, 0xa0, 0x43, 0xa4, 0x3e, 0x48, 0x41, 0x46, 0xbe,
  0x3d, 0x82, 0xd2, 0x3d, 0x8b, 0xc6, 0x54, 0x3d, 0xc0, 0x69, 0x09, 0x3e,
  0x5d, 0x93, 0x35, 0xbe, 0xd0, 0x0a, 0xec, 0xbc, 0x12, 0xa2, 0x03, 0x3e,
  0x0a, 0x26, 0xb1, 0x3d, 0x2d, 0x8a, 0x71, 0x3b, 0xfc, 0xb1, 0x54, 0xbe,
  0x31, 0x22, 0xb8, 0x3e, 0xaf, 0x4a, 0x38, 0x3e, 0x19, 0x21, 0x13, 0xbe,
  0xa1, 0x5b, 0x50, 0x3e, 0x1e, 0x1e, 0x77, 0xbe, 0x07, 0x48, 0x1c, 0xbe,
  0xe0, 0xdf, 0x56, 0xbe, 0xec, 0x31, 0x6f, 0x3e, 0xb3, 0xc5, 0x9c, 0x3e,
  0x2d, 0xa5, 0x9a, 0x3f, 0x45, 0x46, 0xec, 0x3e, 0xb7, 0x83, 0xd9, 0x3c,
  0x09, 0x06, 0xac, 0xbe, 0x41, 0xd1, 0xbc, 0x3c, 0x30, 0xad, 0x88, 0x3e,
  0x42, 0xd5, 0x65, 0xbe, 0x34, 0x3b, 0x28, 0xbe, 0xd8, 0x24, 0x42, 0x3e,
  0x89, 0xb0, 0xb6, 0x3e, 0x0b, 0xbd, 0xfc, 0xbd, 0xac, 0xaa, 0x3b, 0xbd,
  0x3d, 0x80, 0x8c, 0xbe, 0x00, 0x00, 0x06, 0x00, 0x08, 0x00, 0x04, 0x00,
  0x06, 0x00, 0x00, 0x00, 0x04, 0x00, 0x00, 0x00, 0x3c, 0x00, 0x00, 0x00,
  0x3e, 0x52, 0x54, 0x3e, 0xc9, 0x4e, 0x76, 0x3e, 0xfe, 0x8b, 0x40, 0x39,
  0x3c, 0x0b, 0x3f, 0x3e, 0x5e, 0x9e, 0xbe, 0xbe, 0x88, 0xce, 0x73, 0xbe,
  0x5b, 0xf0, 0x11, 0x3f, 0x12, 0x6d, 0xb4, 0xbd, 0x63, 0x67, 0x6a, 0x3d,
  0x40, 0x85, 0x25, 0x3d, 0x72, 0xcc, 0xd8, 0xbe, 0x1c, 0xc7, 0x22, 0xbb,
  0x48, 0x56, 0x73, 0x3e, 0x3e, 0x29, 0x51, 0xbe, 0xa4, 0x7d, 0xcc, 0x3e,
  0x94, 0xfa, 0xff, 0xff, 0x98, 0xfa, 0xff, 0xff, 0x0f, 0x00, 0x00, 0x00,
  0x4d, 0x4c, 0x49, 0x52, 0x20, 0x43, 0x6f, 0x6e, 0x76, 0x65, 0x72, 0x74,
  0x65, 0x64, 0x2e, 0x00, 0x01, 0x00, 0x00, 0x00, 0x14, 0x00, 0x00, 0x00,
  0x00, 0x00, 0x0e, 0x00, 0x18, 0x00, 0x14, 0x00, 0x10, 0x00, 0x0c, 0x00,
  0x08, 0x00, 0x04, 0x00, 0x0e, 0x00, 0x00, 0x00, 0x14, 0x00, 0x00, 0x00,
  0x1c, 0x00, 0x00, 0x00, 0x08, 0x01, 0x00, 0x00, 0x0c, 0x01, 0x00, 0x00,
  0x10, 0x01, 0x00, 0x00, 0x04, 0x00, 0x00, 0x00, 0x6d, 0x61, 0x69, 0x6e,
  0x00, 0x00, 0x00, 0x00, 0x04, 0x00, 0x00, 0x00, 0xb0, 0x00, 0x00, 0x00,
  0x68, 0x00, 0x00, 0x00, 0x34, 0x00, 0x00, 0x00, 0x10, 0x00, 0x00, 0x00,
  0x00, 0x00, 0x0a, 0x00, 0x10, 0x00, 0x0c, 0x00, 0x08, 0x00, 0x04, 0x00,
  0x0a, 0x00, 0x00, 0x00, 0x0c, 0x00, 0x00, 0x00, 0x10, 0x00, 0x00, 0x00,
  0x01, 0x00, 0x00, 0x00, 0x01, 0x00, 0x00, 0x00, 0x0a, 0x00, 0x00, 0x00,
  0x01, 0x00, 0x00, 0x00, 0x09, 0x00, 0x00, 0x00, 0x9a, 0xff, 0xff, 0xff,
  0x10, 0x00, 0x00, 0x00, 0x00, 0x00, 0x00, 0x08, 0x0c, 0x00, 0x00, 0x00,
  0x10, 0x00, 0x00, 0x00, 0x40, 0xfb, 0xff, 0xff, 0x01, 0x00, 0x00, 0x00,
  0x09, 0x00, 0x00, 0x00, 0x03, 0x00, 0x00, 0x00, 0x08, 0x00, 0x00, 0x00,
  0x01, 0x00, 0x00, 0x00, 0x03, 0x00, 0x00, 0x00, 0xca, 0xff, 0xff, 0xff,
  0x10, 0x00, 0x00, 0x00, 0x00, 0x00, 0x00, 0x08, 0x10, 0x00, 0x00, 0x00,
  0x14, 0x00, 0x00, 0x00, 0xba, 0xff, 0xff, 0xff, 0x00, 0x00, 0x00, 0x01,
  0x01, 0x00, 0x00, 0x00, 0x08, 0x00, 0x00, 0x00, 0x03, 0x00, 0x00, 0x00,
  0x07, 0x00, 0x00, 0x00, 0x02, 0x00, 0x00, 0x00, 0x04, 0x00, 0x00, 0x00,
  0x00, 0x00, 0x0e, 0x00, 0x16, 0x00, 0x00, 0x00, 0x10, 0x00, 0x0c, 0x00,
  0x0b, 0x00, 0x04, 0x00, 0x0e, 0x00, 0x00, 0x00, 0x18, 0x00, 0x00, 0x00,
  0x00, 0x00, 0x00, 0x08, 0x18, 0x00, 0x00, 0x00, 0x1c, 0x00, 0x00, 0x00,
  0x00, 0x00, 0x06, 0x00, 0x08, 0x00, 0x07, 0x00, 0x06, 0x00, 0x00, 0x00,
  0x00, 0x00, 0x00, 0x01, 0x01, 0x00, 0x00, 0x00, 0x07, 0x00, 0x00, 0x00,
  0x03, 0x00, 0x00, 0x00, 0x00, 0x00, 0x00, 0x00, 0x06, 0x00, 0x00, 0x00,
  0x05, 0x00, 0x00, 0x00, 0x01, 0x00, 0x00, 0x00, 0x0a, 0x00, 0x00, 0x00,
  0x01, 0x00, 0x00, 0x00, 0x00, 0x00, 0x00, 0x00, 0x0b, 0x00, 0x00, 0x00,
  0xe8, 0x03, 0x00, 0x00, 0x90, 0x03, 0x00, 0x00, 0x38, 0x03, 0x00, 0x00,
  0xfc, 0x02, 0x00, 0x00, 0xa4, 0x02, 0x00, 0x00, 0x50, 0x02, 0x00, 0x00,
  0x04, 0x02, 0x00, 0x00, 0x74, 0x01, 0x00, 0x00, 0xdc, 0x00, 0x00, 0x00,
  0x60, 0x00, 0x00, 0x00, 0x04, 0x00, 0x00, 0x00, 0x5a, 0xfc, 0xff, 0xff,
  0x00, 0x00, 0x00, 0x01, 0x14, 0x00, 0x00, 0x00, 0x1c, 0x00, 0x00, 0x00,
  0x1c, 0x00, 0x00, 0x00, 0x0b, 0x00, 0x00, 0x00, 0x34, 0x00, 0x00, 0x00,
  0x02, 0x00, 0x00, 0x00, 0xff, 0xff, 0xff, 0xff, 0x01, 0x00, 0x00, 0x00,
  0x44, 0xfc, 0xff, 0xff, 0x1b, 0x00, 0x00, 0x00, 0x53, 0x74, 0x61, 0x74,
  0x65, 0x66, 0x75, 0x6c, 0x50, 0x61, 0x72, 0x74, 0x69, 0x74, 0x69, 0x6f,
  0x6e, 0x65, 0x64, 0x43, 0x61, 0x6c, 0x6c, 0x5f, 0x31, 0x3a, 0x30, 0x00,
  0x02, 0x00, 0x00, 0x00, 0x01, 0x00, 0x00, 0x00, 0x01, 0x00, 0x00, 0x00,
  0xb2, 0xfc, 0xff, 0xff, 0x00, 0x00, 0x00, 0x01, 0x14, 0x00, 0x00, 0x00,
  0x1c, 0x00, 0x00, 0x00, 0x1c, 0x00, 0x00, 0x00, 0x0a, 0x00, 0x00, 0x00,
  0x54, 0x00, 0x00, 0x00, 0x02, 0x00, 0x00, 0x00, 0xff, 0xff, 0xff, 0xff,
  0x01, 0x00, 0x00, 0x00, 0x9c, 0xfc, 0xff, 0xff, 0x38, 0x00, 0x00, 0x00,
  0x73, 0x65, 0x71, 0x75, 0x65, 0x6e, 0x74, 0x69, 0x61, 0x6c, 0x5f, 0x31,
  0x2f, 0x64, 0x65, 0x6e, 0x73, 0x65, 0x5f, 0x32, 0x5f, 0x31, 0x2f, 0x4d,
  0x61, 0x74, 0x4d, 0x75, 0x6c, 0x3b, 0x73, 0x65, 0x71, 0x75, 0x65, 0x6e,
  0x74, 0x69, 0x61, 0x6c, 0x5f, 0x31, 0x2f, 0x64, 0x65, 0x6e, 0x73, 0x65,
  0x5f, 0x32, 0x5f, 0x31, 0x2f, 0x41, 0x64, 0x64, 0x00, 0x00, 0x00, 0x00,
  0x02, 0x00, 0x00, 0x00, 0x01, 0x00, 0x00, 0x00, 0x01, 0x00, 0x00, 0x00,
  0x2a, 0xfd, 0xff, 0xff, 0x00, 0x00, 0x00, 0x01, 0x14, 0x00, 0x00, 0x00,
  0x1c, 0x00, 0x00, 0x00, 0x1c, 0x00, 0x00, 0x00, 0x09, 0x00, 0x00, 0x00,
  0x70, 0x00, 0x00, 0x00, 0x02, 0x00, 0x00, 0x00, 0xff, 0xff, 0xff, 0xff,
  0x0f, 0x00, 0x00, 0x00, 0x14, 0xfd, 0xff, 0xff, 0x54, 0x00, 0x00, 0x00,
  0x73, 0x65, 0x71, 0x75, 0x65, 0x6e, 0x74, 0x69, 0x61, 0x6c, 0x5f, 0x31,
  0x2f, 0x64, 0x65, 0x6e, 0x73, 0x65, 0x5f, 0x31, 0x5f, 0x32, 0x2f, 0x4d,
  0x61, 0x74, 0x4d, 0x75, 0x6c, 0x3b, 0x73, 0x65, 0x71, 0x75, 0x65, 0x6e,
  0x74, 0x69, 0x61, 0x6c, 0x5f, 0x31, 0x2f, 0x64, 0x65, 0x6e, 0x73, 0x65,
  0x5f, 0x31, 0x5f, 0x32, 0x2f, 0x52, 0x65, 0x6c, 0x75, 0x3b, 0x73, 0x65,
  0x71, 0x75, 0x65, 0x6e, 0x74, 0x69, 0x61, 0x6c, 0x5f, 0x31, 0x2f, 0x64,
  0x65, 0x6e, 0x73, 0x65, 0x5f, 0x31, 0x5f, 0x32, 0x2f, 0x41, 0x64, 0x64,
  0x00, 0x00, 0x00, 0x00, 0x02, 0x00, 0x00, 0x00, 0x01, 0x00, 0x00, 0x00,
  0x0f, 0x00, 0x00, 0x00, 0xbe, 0xfd, 0xff, 0xff, 0x00, 0x00, 0x00, 0x01,
  0x14, 0x00, 0x00, 0x00, 0x1c, 0x00, 0x00, 0x00, 0x1c, 0x00, 0x00, 0x00,
  0x08, 0x00, 0x00, 0x00, 0x68, 0x00, 0x00, 0x00, 0x02, 0x00, 0x00, 0x00,
  0xff, 0xff, 0xff, 0xff, 0x1e, 0x00, 0x00, 0x00, 0xa8, 0xfd, 0xff, 0xff,
  0x4e, 0x00, 0x00, 0x00, 0x73, 0x65, 0x71, 0x75, 0x65, 0x6e, 0x74, 0x69,
  0x61, 0x6c, 0x5f, 0x31, 0x2f, 0x64, 0x65, 0x6e, 0x73, 0x65, 0x5f, 0x31,
  0x2f, 0x4d, 0x61, 0x74, 0x4d, 0x75, 0x6c, 0x3b, 0x73, 0x65, 0x71, 0x75,
  0x65, 0x6e, 0x74, 0x69, 0x61, 0x6c, 0x5f, 0x31, 0x2f, 0x64, 0x65, 0x6e,
  0x73, 0x65, 0x5f, 0x31, 0x2f, 0x52, 0x65, 0x6c, 0x75, 0x3b, 0x73, 0x65,
  0x71, 0x75, 0x65, 0x6e, 0x74, 0x69, 0x61, 0x6c, 0x5f, 0x31, 0x2f, 0x64,
  0x65, 0x6e, 0x73, 0x65, 0x5f, 0x31, 0x2f, 0x41, 0x64, 0x64, 0x00, 0x00,
  0x02, 0x00, 0x00, 0x00, 0x01, 0x00, 0x00, 0x00, 0x1e, 0x00, 0x00, 0x00,
  0x9e, 0xfe, 0xff, 0xff, 0x00, 0x00, 0x00, 0x01, 0x10, 0x00, 0x00, 0x00,
  0x10, 0x00, 0x00, 0x00, 0x07, 0x00, 0x00, 0x00, 0x28, 0x00, 0x00, 0x00,
  0x24, 0xfe, 0xff, 0xff, 0x1b, 0x00, 0x00, 0x00, 0x73, 0x65, 0x71, 0x75,
  0x65, 0x6e, 0x74, 0x69, 0x61, 0x6c, 0x5f, 0x31, 0x2f, 0x64, 0x65, 0x6e,
  0x73, 0x65, 0x5f, 0x31, 0x2f, 0x4d, 0x61, 0x74, 0x4d, 0x75, 0x6c, 0x00,
  0x02, 0x00, 0x00, 0x00, 0x1e, 0x00, 0x00, 0x00, 0x03, 0x00, 0x00, 0x00,
  0xe6, 0xfe, 0xff, 0xff, 0x00, 0x00, 0x00, 0x01, 0x10, 0x00, 0x00, 0x00,
  0x10, 0x00, 0x00, 0x00, 0x06, 0x00, 0x00, 0x00, 0x34, 0x00, 0x00, 0x00,
  0x6c, 0xfe, 0xff, 0xff, 0x27, 0x00, 0x00, 0x00, 0x73, 0x65, 0x71, 0x75,
  0x65, 0x6e, 0x74, 0x69, 0x61, 0x6c, 0x5f, 0x31, 0x2f, 0x64, 0x65, 0x6e,
  0x73, 0x65, 0x5f, 0x31, 0x2f, 0x41, 0x64, 0x64, 0x2f, 0x52, 0x65, 0x61,
  0x64, 0x56, 0x61, 0x72, 0x69, 0x61, 0x62, 0x6c, 0x65, 0x4f, 0x70, 0x00,
  0x01, 0x00, 0x00, 0x00, 0x1e, 0x00, 0x00, 0x00, 0x36, 0xff, 0xff, 0xff,
  0x00, 0x00, 0x00, 0x01, 0x10, 0x00, 0x00, 0x00, 0x10, 0x00, 0x00, 0x00,
  0x05, 0x00, 0x00, 0x00, 0x38, 0x00, 0x00, 0x00, 0xbc, 0xfe, 0xff, 0xff,
  0x29, 0x00, 0x00, 0x00, 0x73, 0x65, 0x71, 0x75, 0x65, 0x6e, 0x74, 0x69,
  0x61, 0x6c, 0x5f, 0x31, 0x2f, 0x64, 0x65, 0x6e, 0x73, 0x65, 0x5f, 0x31,
  0x5f, 0x32, 0x2f, 0x41, 0x64, 0x64, 0x2f, 0x52, 0x65, 0x61, 0x64, 0x56,
  0x61, 0x72, 0x69, 0x61, 0x62, 0x6c, 0x65, 0x4f, 0x70, 0x00, 0x00, 0x00,
  0x01, 0x00, 0x00, 0x00, 0x0f, 0x00, 0x00, 0x00, 0x8a, 0xff, 0xff, 0xff,
  0x00, 0x00, 0x00, 0x01, 0x10, 0x00, 0x00, 0x00, 0x10, 0x00, 0x00, 0x00,
  0x04, 0x00, 0x00, 0x00, 0x1c, 0x00, 0x00, 0x00, 0x10, 0xff, 0xff, 0xff,
  0x0f, 0x00, 0x00, 0x00, 0x61, 0x72, 0x69, 0x74, 0x68, 0x2e, 0x63, 0x6f,
  0x6e, 0x73, 0x74, 0x61, 0x6e, 0x74, 0x32, 0x00, 0x01, 0x00, 0x00, 0x00,
  0x01, 0x00, 0x00, 0x00, 0xc2, 0xff, 0xff, 0xff, 0x00, 0x00, 0x00, 0x01,
  0x10, 0x00, 0x00, 0x00, 0x10, 0x00, 0x00, 0x00, 0x03, 0x00, 0x00, 0x00,
  0x1c, 0x00, 0x00, 0x00, 0x48, 0xff, 0xff, 0xff, 0x0f, 0x00, 0x00, 0x00,
  0x61, 0x72, 0x69, 0x74, 0x68, 0x2e, 0x63, 0x6f, 0x6e, 0x73, 0x74, 0x61,
  0x6e, 0x74, 0x31, 0x00, 0x02, 0x00, 0x00, 0x00, 0x0f, 0x00, 0x00, 0x00,
  0x1e, 0x00, 0x00, 0x00, 0x00, 0x00, 0x16, 0x00, 0x18, 0x00, 0x14, 0x00,
  0x00, 0x00, 0x10, 0x00, 0x0c, 0x00, 0x08, 0x00, 0x00, 0x00, 0x00, 0x00,
  0x00, 0x00, 0x07, 0x00, 0x16, 0x00, 0x00, 0x00, 0x00, 0x00, 0x00, 0x01,
  0x10, 0x00, 0x00, 0x00, 0x10, 0x00, 0x00, 0x00, 0x02, 0x00, 0x00, 0x00,
  0x1c, 0x00, 0x00, 0x00, 0x9c, 0xff, 0xff, 0xff, 0x0e, 0x00, 0x00, 0x00,
  0x61, 0x72, 0x69, 0x74, 0x68, 0x2e, 0x63, 0x6f, 0x6e, 0x73, 0x74, 0x61,
  0x6e, 0x74, 0x00, 0x00, 0x02, 0x00, 0x00, 0x00, 0x01, 0x00, 0x00, 0x00,
  0x0f, 0x00, 0x00, 0x00, 0x00, 0x00, 0x16, 0x00, 0x1c, 0x00, 0x18, 0x00,
  0x00, 0x00, 0x14, 0x00, 0x10, 0x00, 0x0c, 0x00, 0x00, 0x00, 0x00, 0x00,
  0x08, 0x00, 0x07, 0x00, 0x16, 0x00, 0x00, 0x00, 0x00, 0x00, 0x00, 0x01,
  0x14, 0x00, 0x00, 0x00, 0x20, 0x00, 0x00, 0x00, 0x20, 0x00, 0x00, 0x00,
  0x01, 0x00, 0x00, 0x00, 0x3c, 0x00, 0x00, 0x00, 0x02, 0x00, 0x00, 0x00,
  0xff, 0xff, 0xff, 0xff, 0x03, 0x00, 0x00, 0x00, 0x04, 0x00, 0x04, 0x00,
  0x04, 0x00, 0x00, 0x00, 0x1e, 0x00, 0x00, 0x00, 0x73, 0x65, 0x72, 0x76,
  0x69, 0x6e, 0x67, 0x5f, 0x64, 0x65, 0x66, 0x61, 0x75, 0x6c, 0x74, 0x5f,
  0x6b, 0x65, 0x72, 0x61, 0x73, 0x5f, 0x74, 0x65, 0x6e, 0x73, 0x6f, 0x72,
  0x3a, 0x30, 0x00, 0x00, 0x02, 0x00, 0x00, 0x00, 0x01, 0x00, 0x00, 0x00,
  0x03, 0x00, 0x00, 0x00, 0x02, 0x00, 0x00, 0x00, 0x20, 0x00, 0x00, 0x00,
  0x04, 0x00, 0x00, 0x00, 0xf4, 0xff, 0xff, 0xff, 0x0e, 0x00, 0x00, 0x00,
  0x00, 0x00, 0x00, 0x0e, 0x0c, 0x00, 0x0c, 0x00, 0x0b, 0x00, 0x00, 0x00,
  0x00, 0x00, 0x04, 0x00, 0x0c, 0x00, 0x00, 0x00, 0x09, 0x00, 0x00, 0x00,
  0x00, 0x00, 0x00, 0x09
};
unsigned int model_tflite_len = 4456;
