unsigned char model[] = {
  0x1c, 0x00, 0x00, 0x00, 0x54, 0x46, 0x4c, 0x33, 0x14, 0x00, 0x20, 0x00,
  0x1c, 0x00, 0x18, 0x00, 0x14, 0x00, 0x10, 0x00, 0x0c, 0x00, 0x00, 0x00,
  0x08, 0x00, 0x04, 0x00, 0x14, 0x00, 0x00, 0x00, 0x1c, 0x00, 0x00, 0x00,
  0x8c, 0x00, 0x00, 0x00, 0xe4, 0x00, 0x00, 0x00, 0xf8, 0x0a, 0x00, 0x00,
  0x08, 0x0b, 0x00, 0x00, 0x8c, 0x10, 0x00, 0x00, 0x03, 0x00, 0x00, 0x00,
  0x01, 0x00, 0x00, 0x00, 0x04, 0x00, 0x00, 0x00, 0xba, 0xf4, 0xff, 0xff,
  0x0c, 0x00, 0x00, 0x00, 0x1c, 0x00, 0x00, 0x00, 0x3c, 0x00, 0x00, 0x00,
  0x0f, 0x00, 0x00, 0x00, 0x73, 0x65, 0x72, 0x76, 0x69, 0x6e, 0x67, 0x5f,
  0x64, 0x65, 0x66, 0x61, 0x75, 0x6c, 0x74, 0x00, 0x01, 0x00, 0x00, 0x00,
  0x04, 0x00, 0x00, 0x00, 0x90, 0xff, 0xff, 0xff, 0x0a, 0x00, 0x00, 0x00,
  0x04, 0x00, 0x00, 0x00, 0x08, 0x00, 0x00, 0x00, 0x6f, 0x75, 0x74, 0x70,
  0x75, 0x74, 0x5f, 0x30, 0x00, 0x00, 0x00, 0x00, 0x01, 0x00, 0x00, 0x00,
  0x04, 0x00, 0x00, 0x00, 0xc6, 0xf5, 0xff, 0xff, 0x04, 0x00, 0x00, 0x00,
  0x0c, 0x00, 0x00, 0x00, 0x6b, 0x65, 0x72, 0x61, 0x73, 0x5f, 0x74, 0x65,
  0x6e, 0x73, 0x6f, 0x72, 0x00, 0x00, 0x00, 0x00, 0x02, 0x00, 0x00, 0x00,
  0x34, 0x00, 0x00, 0x00, 0x04, 0x00, 0x00, 0x00, 0xdc, 0xff, 0xff, 0xff,
  0x0d, 0x00, 0x00, 0x00, 0x04, 0x00, 0x00, 0x00, 0x13, 0x00, 0x00, 0x00,
  0x43, 0x4f, 0x4e, 0x56, 0x45, 0x52, 0x53, 0x49, 0x4f, 0x4e, 0x5f, 0x4d,
  0x45, 0x54, 0x41, 0x44, 0x41, 0x54, 0x41, 0x00, 0x08, 0x00, 0x0c, 0x00,
  0x08, 0x00, 0x04, 0x00, 0x08, 0x00, 0x00, 0x00, 0x0c, 0x00, 0x00, 0x00,
  0x04, 0x00, 0x00, 0x00, 0x13, 0x00, 0x00, 0x00, 0x6d, 0x69, 0x6e, 0x5f,
  0x72, 0x75, 0x6e, 0x74, 0x69, 0x6d, 0x65, 0x5f, 0x76, 0x65, 0x72, 0x73,
  0x69, 0x6f, 0x6e, 0x00, 0x0e, 0x00, 0x00, 0x00, 0x10, 0x0a, 0x00, 0x00,
  0x08, 0x0a, 0x00, 0x00, 0xbc, 0x09, 0x00, 0x00, 0x9c, 0x02, 0x00, 0x00,
  0x88, 0x02, 0x00, 0x00, 0x3c, 0x02, 0x00, 0x00, 0xb4, 0x01, 0x00, 0x00,
  0xb4, 0x00, 0x00, 0x00, 0xac, 0x00, 0x00, 0x00, 0xa4, 0x00, 0x00, 0x00,
  0x9c, 0x00, 0x00, 0x00, 0x94, 0x00, 0x00, 0x00, 0x74, 0x00, 0x00, 0x00,
  0x04, 0x00, 0x00, 0x00, 0x7a, 0xf6, 0xff, 0xff, 0x04, 0x00, 0x00, 0x00,
  0x60, 0x00, 0x00, 0x00, 0x10, 0x00, 0x00, 0x00, 0x00, 0x00, 0x00, 0x00,
  0x08, 0x00, 0x0e, 0x00, 0x08, 0x00, 0x04, 0x00, 0x08, 0x00, 0x00, 0x00,
  0x10, 0x00, 0x00, 0x00, 0x24, 0x00, 0x00, 0x00, 0x00, 0x00, 0x06, 0x00,
  0x08, 0x00, 0x04, 0x00, 0x06, 0x00, 0x00, 0x00, 0x04, 0x00, 0x00, 0x00,
  0x00, 0x00, 0x00, 0x00, 0x0c, 0x00, 0x18, 0x00, 0x14, 0x00, 0x10, 0x00,
  0x0c, 0x00, 0x04, 0x00, 0x0c, 0x00, 0x00, 0x00, 0xf3, 0x06, 0x8b, 0xf7,
  0x3e, 0xf1, 0xbd, 0x34, 0x02, 0x00, 0x00, 0x00, 0x02, 0x00, 0x00, 0x00,
  0x04, 0x00, 0x00, 0x00, 0x06, 0x00, 0x00, 0x00, 0x32, 0x2e, 0x31, 0x38,
  0x2e, 0x30, 0x00, 0x00, 0xe6, 0xf6, 0xff, 0xff, 0x04, 0x00, 0x00, 0x00,
  0x10, 0x00, 0x00, 0x00, 0x31, 0x2e, 0x31, 0x34, 0x2e, 0x30, 0x00, 0x00,
  0x00, 0x00, 0x00, 0x00, 0x00, 0x00, 0x00, 0x00, 0x48, 0xf1, 0xff, 0xff,
  0x4c, 0xf1, 0xff, 0xff, 0x50, 0xf1, 0xff, 0xff, 0x54, 0xf1, 0xff, 0xff,
  0x12, 0xf7, 0xff, 0xff, 0x04, 0x00, 0x00, 0x00, 0xf0, 0x00, 0x00, 0x00,
  0x9a, 0xa6, 0x02, 0x3d, 0x36, 0x05, 0x45, 0xbd, 0x8e, 0x09, 0x7c, 0x3d,
  0x31, 0x53, 0x23, 0x3e, 0x86, 0xe3, 0x79, 0x3d, 0x86, 0xf6, 0x93, 0xbd,
  0x87, 0x14, 0xa7, 0x3e, 0xd9, 0x05, 0x9d, 0x3e, 0x2d, 0xe1, 0x88, 0x3e,
  0x8e, 0xdb, 0xd7, 0xbc, 0xae, 0x0a, 0x14, 0x3d, 0xb8, 0x6e, 0x41, 0x3b,
  0x14, 0x25, 0xbf, 0x3d, 0x78, 0xf7, 0x84, 0xbe, 0xe8, 0x7c, 0x9d, 0x3c,
  0x5e, 0x0a, 0x81, 0xbc, 0x58, 0x98, 0xf3, 0x3d, 0x37, 0x31, 0xb1, 0x3d,
  0xc2, 0xcd, 0x54, 0xbe, 0xad, 0xbc, 0x8e, 0x3e, 0xf3, 0x56, 0x74, 0x3e,
  0xd3, 0x28, 0x4e, 0x3e, 0x9e, 0xc5, 0xdd, 0xbe, 0x1e, 0x80, 0x92, 0x3e,
  0xd9, 0x64, 0x78, 0x3e, 0xdd, 0x58, 0xcd, 0x3d, 0xaa, 0xf5, 0x96, 0xbe,
  0x51, 0xce, 0x15, 0x3e, 0x45, 0x96, 0x44, 0xbe, 0xfb, 0x44, 0x3b, 0x3e,
  0xa7, 0xa6, 0x58, 0x3d, 0x83, 0x8c, 0x5f, 0x3e, 0xb0, 0xbb, 0xb5, 0xbe,
  0x91, 0xff, 0x55, 0x3e, 0x41, 0x9c, 0x60, 0xbe, 0xfa, 0x66, 0x1b, 0x3e,
  0x2e, 0xde, 0xcc, 0xbd, 0xb2, 0x04, 0xa7, 0x3d, 0x1e, 0xe6, 0x9e, 0xbe,
  0xc8, 0x36, 0x72, 0xbd, 0x44, 0x96, 0xa7, 0x3e, 0x08, 0x4b, 0xfb, 0xbd,
  0x69, 0x4d, 0x63, 0xbd, 0x64, 0x4f, 0xe5, 0xbb, 0x79, 0xb8, 0x8b, 0xbe,
  0x73, 0x02, 0x10, 0x3e, 0x57, 0x12, 0xa3, 0x3d, 0xaf, 0xdc, 0x51, 0xbe,
  0xe7, 0x77, 0x67, 0xbe, 0x96, 0x1e, 0x45, 0x3e, 0xb6, 0x20, 0x91, 0x3b,
  0x11, 0xdd, 0x1b, 0x3e, 0xe1, 0xbe, 0x38, 0x3e, 0x3a, 0xbb, 0x98, 0x3e,
  0xb1, 0xcc, 0x89, 0xbe, 0xe6, 0xd6, 0xa1, 0xbe, 0x0b, 0x59, 0x23, 0x3c,
  0x86, 0xe9, 0x90, 0xc0, 0xcc, 0xc9, 0x6e, 0x3d, 0x82, 0xe7, 0x2d, 0xbe,
  0x0e, 0xf8, 0xff, 0xff, 0x04, 0x00, 0x00, 0x00, 0x78, 0x00, 0x00, 0x00,
  0x02, 0x69, 0x61, 0xc0, 0x05, 0x69, 0x4b, 0xbe, 0xac, 0x20, 0x1a, 0xc0,
  0xbf, 0xd0, 0x59, 0xbf, 0x4d, 0x96, 0x12, 0x40, 0xf7, 0x4a, 0x6d, 0xc0,
  0x62, 0x78, 0x5d, 0x40, 0x13, 0xe3, 0x66, 0xc0, 0x7d, 0x00, 0x2b, 0x40,
  0x37, 0x7d, 0x5c, 0xc0, 0x32, 0xfc, 0x54, 0xc0, 0x19, 0x8e, 0x2a, 0x40,
  0x9a, 0x1f, 0xf2, 0x3f, 0xe5, 0xf4, 0x28, 0x40, 0xb3, 0x51, 0x56, 0xc0,
  0xda, 0x98, 0x13, 0x40, 0x08, 0x91, 0x5d, 0xc0, 0x95, 0x01, 0x4f, 0xc0,
  0xc6, 0xe3, 0x5e, 0x40, 0x00, 0x00, 0x00, 0x00, 0xe4, 0x19, 0x2a, 0xc0,
  0xda, 0xc3, 0x87, 0x3f, 0xf6, 0xff, 0x59, 0xc0, 0x5e, 0x92, 0x61, 0xc0,
  0xd3, 0xc6, 0x48, 0x40, 0x9c, 0x55, 0xbe, 0xbf, 0x4c, 0xf1, 0x8d, 0xbf,
  0x00, 0x00, 0x00, 0x00, 0xd6, 0x6b, 0xe3, 0x3f, 0x1d, 0x2c, 0x5f, 0x40,
  0x92, 0xf8, 0xff, 0xff, 0x04, 0x00, 0x00, 0x00, 0x3c, 0x00, 0x00, 0x00,
  0x9c, 0x0b, 0x78, 0xbd, 0x78, 0x21, 0x00, 0x40, 0xef, 0x4a, 0x32, 0xbd,
  0x00, 0xaf, 0x5c, 0xc0, 0xa8, 0xa1, 0x28, 0x3f, 0x03, 0x1f, 0x29, 0x40,
  0x78, 0x72, 0x8b, 0xbf, 0xde, 0x58, 0xee, 0x3a, 0x58, 0x9a, 0xaf, 0x3f,
  0x53, 0x33, 0xa8, 0xbc, 0x2e, 0x6e, 0x31, 0x40, 0x7e, 0x4a, 0xe9, 0x3e,
  0x79, 0x9a, 0x57, 0x3e, 0xf5, 0x24, 0xc8, 0xbf, 0x00, 0x00, 0x00, 0x00,
  0xda, 0xf8, 0xff, 0xff, 0x04, 0x00, 0x00, 0x00, 0x04, 0x00, 0x00, 0x00,
  0x22, 0x81, 0xb1, 0x3f, 0xea, 0xf8, 0xff, 0xff, 0x04, 0x00, 0x00, 0x00,
  0x08, 0x07, 0x00, 0x00, 0x83, 0x62, 0x8e, 0xbe, 0x3f, 0xfd, 0x5e, 0x3e,
  0x1d, 0x8b, 0x8d, 0x3e, 0x40, 0x51, 0x3b, 0xbe, 0x59, 0x18, 0xc8, 0x3d,
  0xe7, 0x4c, 0x59, 0x3e, 0x75, 0x2b, 0x10, 0x3e, 0xd3, 0xc1, 0xaf, 0xbe,
  0xed, 0x88, 0xf9, 0x3d, 0x98, 0xaf, 0xa5, 0xbe, 0x67, 0x85, 0xc0, 0xbe,
  0xfd, 0x02, 0x7a, 0x3c, 0x5b, 0x85, 0x06, 0xbe, 0x63, 0xc2, 0x6f, 0xbe,
  0xeb, 0xf5, 0xdb, 0xbd, 0xa8, 0x8c, 0x34, 0xbe, 0xb3, 0x20, 0x01, 0xbe,
  0xa1, 0x56, 0xe7, 0xbd, 0xc8, 0x71, 0x84, 0x3d, 0x48, 0xa8, 0xbb, 0x3d,
  0x2a, 0x41, 0x63, 0xbe, 0x6d, 0x9e, 0x9d, 0xbe, 0x11, 0x73, 0x35, 0x3e,
  0xd9, 0x59, 0x83, 0x3e, 0x8f, 0x4e, 0x65, 0xbe, 0x32, 0x31, 0x31, 0xbe,
  0x3b, 0x00, 0x2b, 0x3e, 0x50, 0xd9, 0x88, 0x3e, 0xab, 0xf5, 0x2c, 0xbe,
  0xbc, 0x4b, 0x00, 0xbe, 0xc6, 0x9f, 0x03, 0x3d, 0xa9, 0x4f, 0x47, 0x3b,
  0xdb, 0xaa, 0x6d, 0x3d, 0x15, 0xdf, 0xf3, 0xbc, 0xdc, 0xe6, 0xab, 0x3d,
  0x71, 0x84, 0xbf, 0xbe, 0xe9, 0xfb, 0xaa, 0x3e, 0xf0, 0x41, 0xe7, 0xbe,
  0x71, 0x15, 0x4b, 0xbe, 0x52, 0x19, 0x21, 0x3e, 0x05, 0x09, 0xbb, 0xbe,
  0x00, 0x94, 0x8b, 0xbe, 0xc5, 0xb1, 0x96, 0x3e, 0x33, 0xd9, 0xcf, 0xbe,
  0x3f, 0xdb, 0x05, 0x3d, 0x1f, 0xce, 0x5f, 0x3e, 0x6f, 0x24, 0x0b, 0xbe,
  0xab, 0xf2, 0x1b, 0xbe, 0x4e, 0x0c, 0x11, 0xbf, 0xd0, 0x48, 0xb7, 0x3e,
  0x58, 0x2b, 0x92, 0x3c, 0xf3, 0xa8, 0x97, 0x3d, 0x55, 0x11, 0x8b, 0x3e,
  0xd7, 0x00, 0x20, 0xbe, 0xd9, 0x77, 0xbd, 0xbb, 0xad, 0x47, 0x47, 0x3b,
  0xbf, 0x9d, 0x98, 0x3e, 0xd2, 0x34, 0x8d, 0x3e, 0xa7, 0xff, 0x07, 0x3f,
  0x01, 0xa5, 0x09, 0x3d, 0xcc, 0x18, 0x93, 0xbe, 0x00, 0xa5, 0x60, 0xbe,
  0x85, 0xf2, 0x14, 0xbe, 0x6f, 0xde, 0x1b, 0x3e, 0xca, 0x19, 0xcf, 0x3d,
  0x50, 0xf0, 0x91, 0x3e, 0xc9, 0xbd, 0x27, 0xbe, 0xd9, 0x85, 0xaa, 0xbc,
  0xc7, 0xa0, 0x37, 0xbe, 0x76, 0x06, 0x8a, 0xbe, 0x08, 0xf1, 0x9d, 0xbe,
  0x1b, 0xf1, 0x39, 0xbe, 0x71, 0x87, 0x03, 0xbe, 0x69, 0x4c, 0x9a, 0xbd,
  0x00, 0x22, 0x41, 0x3d, 0x8a, 0x57, 0xd0, 0xbd, 0xe0, 0xcc, 0x0b, 0xbc,
  0x25, 0xb3, 0x77, 0x3e, 0xa8, 0x9f, 0xa2, 0x3e, 0x30, 0x32, 0x78, 0xbe,
  0x57, 0xc9, 0x79, 0x3e, 0x10, 0x10, 0xc1, 0xbe, 0x80, 0x44, 0x36, 0x3c,
  0x74, 0x7d, 0x43, 0x3e, 0x09, 0x91, 0x9f, 0x3e, 0x85, 0xf3, 0x9f, 0xbe,
  0x49, 0xee, 0xd0, 0xbe, 0x50, 0x0f, 0x03, 0x3e, 0x3e, 0x8e, 0xde, 0xbe,
  0xcc, 0x6a, 0x12, 0x3e, 0x0c, 0x47, 0x48, 0x3e, 0xe7, 0x98, 0xa0, 0x3d,
  0x66, 0x28, 0xb9, 0x3e, 0xaf, 0xfd, 0x80, 0xbe, 0xc0, 0x57, 0x0a, 0x3e,
  0x91, 0x10, 0xb5, 0x3e, 0x41, 0xd8, 0x88, 0xbe, 0x3a, 0xf7, 0xda, 0x3e,
  0xa5, 0x3c, 0x0f, 0xbe, 0xe4, 0x6b, 0x39, 0x3d, 0xb8, 0x4e, 0xce, 0xbd,
  0x80, 0x11, 0x75, 0x3d, 0xd8, 0x4b, 0x55, 0xbe, 0x94, 0x2f, 0x39, 0x3e,
  0x77, 0xbf, 0x07, 0xbe, 0x86, 0x97, 0xe2, 0x3d, 0x40, 0x38, 0x2a, 0xbd,
  0xa7, 0xc3, 0x68, 0x3b, 0x05, 0xe8, 0x89, 0xbe, 0x18, 0xf7, 0x5c, 0x3e,
  0x52, 0x5b, 0xb9, 0x3e, 0xd5, 0xd5, 0x4b, 0x3e, 0x6c, 0xc4, 0x2b, 0xbe,
  0x30, 0x5f, 0xd5, 0xbd, 0x7a, 0x64, 0xa2, 0xbe, 0xda, 0x06, 0xc1, 0x3e,
  0x4b, 0x85, 0x3f, 0x3e, 0xd4, 0xdd, 0x9b, 0x3e, 0xc8, 0x9a, 0x5e, 0xbf,
  0xda, 0x6c, 0x3d, 0xbe, 0xb3, 0x06, 0x69, 0xbe, 0xa8, 0xc7, 0x62, 0xbe,
  0xaa, 0x10, 0x32, 0x3e, 0x9b, 0xff, 0x07, 0xbf, 0x3d, 0xfa, 0x52, 0xbd,
  0xcd, 0xcd, 0xfb, 0x3d, 0x12, 0x0c, 0x7e, 0x3d, 0x8e, 0x3a, 0x70, 0x3d,
  0x35, 0x0d, 0x2e, 0x3e, 0x03, 0x8c, 0x74, 0x3e, 0x7a, 0x1f, 0xfd, 0x3d,
  0x7e, 0xfa, 0x63, 0x3c, 0xa2, 0xd7, 0x15, 0x3d, 0xfe, 0x96, 0xfa, 0x3e,
  0x9b, 0x07, 0xaa, 0xbd, 0xe5, 0x79, 0xe6, 0xbd, 0x55, 0xfe, 0x48, 0x3e,
  0x07, 0x34, 0x17, 0x3e, 0x85, 0xbc, 0x47, 0x3e, 0xa8, 0xea, 0xb1, 0x3e,
  0xee, 0x1d, 0x9f, 0x3b, 0x46, 0xfd, 0x22, 0x3e, 0xc8, 0xe3, 0x3a, 0x3d,
  0x9f, 0xf5, 0x8a, 0xbd, 0xf0, 0xd9, 0x98, 0xbc, 0x6a, 0x48, 0xf6, 0x3d,
  0x96, 0x6f, 0xc6, 0xbe, 0x58, 0xe2, 0x4f, 0x3e, 0xb6, 0x58, 0xe3, 0x3d,
  0xf6, 0x50, 0xdd, 0xbd, 0x6c, 0xb2, 0x19, 0xbf, 0x05, 0xf1, 0xf4, 0x3d,
  0x6b, 0x2c, 0x25, 0xbf, 0xdf, 0x34, 0x07, 0x3e, 0xc5, 0xd7, 0xb3, 0x3e,
  0x5a, 0x2b, 0x9d, 0xbf, 0xc7, 0x0b, 0x8c, 0x3e, 0x47, 0x92, 0x0a, 0xbf,
  0xc4, 0x1c, 0x21, 0x3d, 0xfd, 0xa2, 0x14, 0x3e, 0xcb, 0xf0, 0xb3, 0xbe,
  0x2d, 0xae, 0x79, 0x3e, 0x65, 0xd1, 0x03, 0x3e, 0x59, 0x6f, 0x45, 0x3e,
  0x31, 0xcf, 0xb8, 0x3d, 0x04, 0x23, 0x94, 0x3e, 0xc2, 0xe6, 0xa4, 0xbd,
  0x5c, 0x1e, 0xd5, 0xbe, 0xf3, 0x4c, 0x52, 0x3e, 0x98, 0xdf, 0x2a, 0xbd,
  0x2b, 0xb9, 0x6e, 0xbe, 0xc1, 0xf1, 0x4a, 0x3e, 0xee, 0xf6, 0x2a, 0x3e,
  0x0b, 0x11, 0x1b, 0xbf, 0x56, 0xdc, 0x37, 0xbe, 0x40, 0xaa, 0x6a, 0x3e,
  0xe1, 0xd0, 0x90, 0xbe, 0xc0, 0xbc, 0xa6, 0xbc, 0x1d, 0x0a, 0xa9, 0x3f,
  0x92, 0x9a, 0xf3, 0x3d, 0x4c, 0x95, 0x6b, 0x3e, 0x12, 0x8c, 0x49, 0xbd,
  0x7d, 0x18, 0x7d, 0xbe, 0x06, 0xd9, 0x90, 0x3e, 0x10, 0x94, 0x37, 0xbe,
  0x36, 0x1d, 0x93, 0xbe, 0xe3, 0x52, 0x95, 0x3d, 0xdb, 0xeb, 0x1f, 0x3e,
  0x31, 0xbb, 0x03, 0x3e, 0xa0, 0x74, 0x55, 0x3d, 0x04, 0x68, 0xa7, 0xbe,
  0xa5, 0xf8, 0x9d, 0xbd, 0xf3, 0x1f, 0x24, 0x3d, 0xb3, 0xe8, 0xca, 0xbe,
  0x1c, 0x87, 0xf6, 0x3d, 0x96, 0xc3, 0x88, 0xbe, 0x7c, 0xd4, 0xf2, 0xb9,
  0x51, 0x61, 0xef, 0x3d, 0xc0, 0xe5, 0x74, 0x3e, 0x48, 0xb0, 0x95, 0x3e,
  0xb6, 0x47, 0x7d, 0xbe, 0xb0, 0x96, 0x86, 0x3c, 0x5e, 0xe6, 0x5c, 0xbd,
  0x04, 0xd7, 0x9c, 0x3e, 0x0d, 0x07, 0x7d, 0x3e, 0xc5, 0x89, 0xd1, 0xbc,
  0xb4, 0xb7, 0x44, 0xbe, 0xd8, 0xd8, 0xae, 0x3e, 0xe1, 0x84, 0x38, 0xbe,
  0x13, 0xb5, 0x59, 0xbe, 0x1c, 0xdd, 0x58, 0x3e, 0x80, 0xbb, 0x51, 0x3d,
  0xf4, 0xde, 0x2a, 0x3e, 0x58, 0xbd, 0x1f, 0xbd, 0x7c, 0x43, 0xa4, 0xbc,
  0xc4, 0xe7, 0x9b, 0x3d, 0x1e, 0xf5, 0x96, 0x3d, 0xa0, 0x5e, 0xa9, 0xbc,
  0x01, 0xd2, 0xe2, 0xbd, 0x8b, 0xaa, 0x5a, 0xbd, 0x37, 0x94, 0x9b, 0xbe,
  0x46, 0x6e, 0x89, 0x3e, 0x06, 0x76, 0x59, 0xbe, 0x36, 0xa5, 0xbd, 0xbe,
  0x16, 0x2a, 0x2e, 0x3e, 0x37, 0x9a, 0xc0, 0x3d, 0x23, 0xa6, 0x88, 0xbe,
  0xf2, 0x2a, 0xb4, 0xbc, 0x0a, 0x97, 0x5e, 0xbe, 0x46, 0x14, 0x8c, 0xbe,
  0x6c, 0xb8, 0x58, 0x3e, 0xfa, 0x55, 0xec, 0xbd, 0x89, 0x9a, 0x0e, 0x3d,
  0x8f, 0x8d, 0x39, 0xbe, 0xf6, 0xd9, 0xc0, 0xba, 0xac, 0x3d, 0xb9, 0x3e,
  0x66, 0x5c, 0x7d, 0x3c, 0x96, 0x52, 0x9c, 0x3e, 0xb3, 0x67, 0x9c, 0x3d,
  0x96, 0xf4, 0x25, 0x3d, 0xa8, 0x26, 0x68, 0xbe, 0xe9, 0xa5, 0x26, 0xbe,
  0x49, 0x65, 0x1e, 0xbd, 0xe2, 0x0b, 0x59, 0xbd, 0xb7, 0x34, 0xa9, 0x3e,
  0x20, 0xf3, 0x56, 0xbe, 0xe7, 0x84, 0x40, 0x3e, 0xfa, 0x0b, 0x2d, 0xbd,
  0xc8, 0x3b, 0x2a, 0xbe, 0xb5, 0x6c, 0x66, 0x3e, 0x12, 0xba, 0x2f, 0x3d,
  0xf5, 0x7f, 0x58, 0x3c, 0x9d, 0x51, 0x80, 0x3e, 0x28, 0x18, 0xf4, 0x3c,
  0xf7, 0x7a, 0xab, 0x3e, 0x87, 0x64, 0x27, 0xbd, 0x7b, 0xfa, 0x7f, 0x3e,
  0x55, 0x45, 0x96, 0xbe, 0x4b, 0x20, 0xa4, 0xbe, 0x9c, 0x70, 0x26, 0x3e,
  0xc3, 0xec, 0x95, 0xbe, 0x06, 0xe7, 0xa7, 0x3e, 0xcf, 0x7a, 0x21, 0x3e,
  0xa5, 0xe4, 0xb3, 0x3b, 0x88, 0x20, 0x19, 0xbe, 0x45, 0x44, 0x1b, 0xbe,
  0x0b, 0xe7, 0x4c, 0x3e, 0xb4, 0xe0, 0x41, 0x3e, 0x3c, 0xc1, 0x0b, 0x3f,
  0x40, 0x5f, 0x93, 0x3e, 0x90, 0x97, 0xa3, 0xbe, 0x42, 0x02, 0x8d, 0xbe,
  0xe9, 0x22, 0x04, 0xbe, 0x2c, 0x01, 0x98, 0xbd, 0xa6, 0x86, 0x0d, 0x3d,
  0x80, 0xd8, 0xbc, 0xbd, 0xfc, 0x6a, 0x51, 0xbe, 0x4c, 0xd9, 0x44, 0x3e,
  0xb6, 0x54, 0x3d, 0xbe, 0xb0, 0x6a, 0xeb, 0xbd, 0x79, 0x4a, 0x6a, 0xbe,
  0x20, 0x49, 0x44, 0x3e, 0x53, 0x22, 0x84, 0xbe, 0x93, 0x6a, 0xa0, 0x3e,
  0x64, 0x77, 0x1d, 0x3e, 0xa8, 0x3b, 0x94, 0xbe, 0x87, 0x61, 0x82, 0xbe,
  0xc8, 0x81, 0x72, 0xbd, 0xed, 0x90, 0x9d, 0xbd, 0xb8, 0xee, 0xae, 0xbe,
  0xe8, 0x8e, 0xb4, 0x3d, 0x83, 0xcc, 0x99, 0x3e, 0x80, 0x4c, 0xcb, 0xbd,
  0x90, 0x60, 0x87, 0xbe, 0xf9, 0x8d, 0x8d, 0x3e, 0x2e, 0x7d, 0x83, 0x3e,
  0xb8, 0x85, 0xb0, 0xbe, 0x08, 0xb8, 0x9f, 0xbd, 0x11, 0xac, 0x05, 0xbe,
  0x8e, 0x04, 0x83, 0xbe, 0x58, 0x6e, 0x6c, 0xbf, 0xf2, 0x9b, 0x06, 0x3e,
  0xf8, 0xd6, 0x78, 0xbf, 0x9b, 0xd3, 0xb5, 0xbc, 0x64, 0x81, 0xa5, 0x3e,
  0x55, 0xb8, 0x01, 0xbf, 0x28, 0x5e, 0x12, 0x3f, 0xb2, 0x96, 0x95, 0xbe,
  0xa3, 0x97, 0x56, 0x3e, 0x5b, 0xa9, 0x39, 0xbe, 0xa0, 0xdb, 0x40, 0xbe,
  0x2a, 0xcb, 0xa7, 0x3d, 0xa0, 0x0a, 0xb2, 0x3d, 0x00, 0x0b, 0x6e, 0x3e,
  0xf9, 0xfd, 0x97, 0x3e, 0xc0, 0x61, 0x15, 0x3d, 0x13, 0xa6, 0x46, 0x3e,
  0xe6, 0xe5, 0x9e, 0x3e, 0xe6, 0xef, 0xde, 0x3d, 0x92, 0x79, 0xb7, 0xbe,
  0xdf, 0x1d, 0xac, 0xbe, 0xd7, 0x6f, 0x13, 0xbe, 0x1e, 0x00, 0x92, 0x3e,
  0xee, 0x64, 0xa3, 0xbe, 0x1f, 0xc3, 0xb8, 0x3d, 0x0d, 0xd5, 0x57, 0xbe,
  0x6d, 0xa3, 0x69, 0xbe, 0x0f, 0xba, 0x9c, 0xbe, 0x07, 0x80, 0xc0, 0x3f,
  0x4b, 0xd9, 0x4f, 0x3f, 0x6f, 0x02, 0x9a, 0x3e, 0x05, 0xc1, 0xae, 0x3e,
  0x4d, 0x5b, 0x0d, 0x3e, 0x85, 0x9b, 0xa4, 0xbe, 0x42, 0x2e, 0x7f, 0xbc,
  0x1f, 0x5e, 0x9f, 0xb9, 0x45, 0xd3, 0x6d, 0xbe, 0x5d, 0x9c, 0xec, 0x3d,
  0x5c, 0x3b, 0x3b, 0xbe, 0x80, 0x9d, 0x08, 0x3e, 0xe8, 0x71, 0x23, 0x3e,
  0x20, 0x0e, 0xd7, 0xbd, 0x03, 0x65, 0x93, 0xbe, 0x8a, 0xbc, 0xa4, 0xbe,
  0x00, 0x2c, 0x8b, 0x3e, 0x81, 0x67, 0x90, 0x3e, 0x46, 0xa8, 0xa6, 0x3d,
  0x95, 0x86, 0x6b, 0xbe, 0xeb, 0x97, 0xe5, 0xbd, 0xc6, 0x64, 0xa7, 0xbe,
  0xd8, 0x97, 0x3a, 0x3e, 0x10, 0x1c, 0x4c, 0xbd, 0x49, 0x49, 0x7b, 0x3e,
  0x1d, 0x5a, 0xa0, 0x3e, 0xe3, 0x31, 0x07, 0xbe, 0xaf, 0x30, 0x8a, 0x3e,
  0xc0, 0x9c, 0xc4, 0x3b, 0xdc, 0xfd, 0x92, 0x3d, 0x92, 0xad, 0x46, 0x3f,
  0xd4, 0x90, 0xa6, 0x3c, 0x41, 0xc2, 0x82, 0x3e, 0xcb, 0x91, 0x5f, 0x3d,
  0x2f, 0xf0, 0x78, 0xbe, 0x6a, 0x5f, 0x5b, 0x3c, 0x12, 0x61, 0xed, 0xbd,
  0xcd, 0x3e, 0xb9, 0x3d, 0xb9, 0x8f, 0x03, 0xbe, 0x6a, 0x93, 0xb6, 0xbd,
  0x4b, 0xf4, 0xb7, 0xbb, 0x27, 0xe6, 0xcd, 0x3d, 0xc7, 0xa9, 0x11, 0xbe,
  0x92, 0x69, 0x28, 0xbe, 0x0f, 0xe2, 0xe0, 0xbe, 0x8e, 0x49, 0x99, 0xbd,
  0xb5, 0x04, 0x87, 0x3d, 0x96, 0x8f, 0xed, 0x3c, 0xc7, 0x02, 0x59, 0x3e,
  0xf9, 0x9b, 0xd3, 0x3a, 0x54, 0x6d, 0xfc, 0xbe, 0x69, 0x94, 0x3b, 0xbe,
  0xc9, 0x11, 0x49, 0x3e, 0xcb, 0x3b, 0xd4, 0xbe, 0x97, 0xfb, 0xee, 0x3d,
  0x7d, 0x6a, 0x9a, 0xbe, 0xf7, 0xdb, 0x82, 0xbe, 0xc3, 0xc0, 0xa2, 0x3e,
  0xc8, 0xf0, 0x8f, 0x3e, 0x94, 0xa3, 0x8e, 0xbe, 0xb3, 0x92, 0x25, 0x3f,
  0x30, 0x5e, 0xd3, 0x3d, 0x1a, 0xa3, 0xb2, 0x3e, 0x85, 0x44, 0xcc, 0xbd,
  0x67, 0x3c, 0x12, 0x3e, 0xeb, 0x6e, 0x9d, 0x3e, 0x3a, 0x54, 0xd5, 0xbd,
  0x0b, 0xe3, 0x28, 0xbd, 0xf4, 0x50, 0xac, 0xbe, 0xab, 0x00, 0x16, 0x3f,
  0x96, 0x04, 0x9d, 0xbe, 0x99, 0x47, 0x85, 0xbe, 0xe1, 0x7c, 0x82, 0x3e,
  0x50, 0xe2, 0x47, 0x3e, 0x8a, 0x0d, 0xa1, 0xbe, 0xde, 0xbb, 0x59, 0x3b,
  0x2d, 0xfc, 0xc2, 0xbe, 0xc6, 0x74, 0x35, 0xbe, 0x7b, 0xe6, 0x10, 0x3e,
  0x07, 0xbd, 0xb8, 0xbe, 0x4b, 0xda, 0x6f, 0x3e, 0x08, 0xe0, 0x9f, 0xbe,
  0x38, 0x7f, 0x50, 0x3e, 0x82, 0x5f, 0x88, 0x3e, 0xc6, 0x68, 0xd6, 0xbe,
  0x03, 0xf4, 0xa8, 0x3e, 0xd3, 0xf9, 0x94, 0x3e, 0xbb, 0x4b, 0x74, 0xbd,
  0x04, 0x82, 0x75, 0x3e, 0xc7, 0xc1, 0xa8, 0xbe, 0x7b, 0xe0, 0x81, 0xbf,
  0x07, 0x44, 0x75, 0xbe, 0x80, 0xf0, 0x30, 0x3e, 0x7c, 0x1b, 0x49, 0x3e,
  0xda, 0x88, 0xb0, 0x3e, 0xcc, 0x7c, 0x15, 0x3e, 0xe0, 0x88, 0x78, 0xbc,
  0x50, 0x50, 0x31, 0xbd, 0x90, 0x30, 0x02, 0xbd, 0xef, 0xd2, 0x95, 0xbe,
  0x84, 0xdc, 0x9a, 0xbd, 0x8c, 0x59, 0x4d, 0x3e, 0x3f, 0xf9, 0xb7, 0xbe,
  0x77, 0x6c, 0xae, 0xbe, 0x3d, 0x91, 0x7e, 0xbe, 0xe6, 0xec, 0xac, 0x3e,
  0x00, 0x80, 0x95, 0x3b, 0x1e, 0x2f, 0x84, 0x3e, 0x21, 0x23, 0xa1, 0xbe,
  0x80, 0x2b, 0x35, 0xbb, 0x48, 0x00, 0xaf, 0x3d, 0x66, 0x6d, 0x99, 0x3e,
  0x08, 0xa0, 0x05, 0x3e, 0x13, 0xd2, 0xb0, 0xbe, 0xc0, 0x0d, 0x57, 0x3c,
  0x14, 0xbc, 0x59, 0x3e, 0x3d, 0xdb, 0x6c, 0xbe, 0x84, 0x81, 0x03, 0x3e,
  0x30, 0x1d, 0x67, 0xbd, 0xa0, 0x55, 0x6f, 0xbd, 0x90, 0xc6, 0x0c, 0x3e,
  0xf6, 0xee, 0x93, 0xbe, 0x00, 0x00, 0x06, 0x00, 0x08, 0x00, 0x04, 0x00,
  0x06, 0x00, 0x00, 0x00, 0x04, 0x00, 0x00, 0x00, 0x3c, 0x00, 0x00, 0x00,
  0x8a, 0x2a, 0x3f, 0x3e, 0xcc, 0x82, 0xdd, 0x3d, 0xd4, 0x57, 0xc0, 0x3e,
  0x74, 0xcc, 0x0f, 0xbe, 0x0b, 0x69, 0x4a, 0x3e, 0x52, 0xac, 0x7b, 0xbe,
  0x34, 0x93, 0x61, 0xbc, 0xc3, 0xda, 0x92, 0xbe, 0x9c, 0x7d, 0xbb, 0x3e,
  0xd4, 0x28, 0x66, 0x3d, 0xac, 0x87, 0xc8, 0xbd, 0x8a, 0x97, 0xb7, 0x3c,
  0x31, 0x0a, 0x13, 0x3d, 0x14, 0x00, 0xb0, 0xbe, 0xb3, 0x3a, 0x06, 0x3f,
  0x94, 0xfa, 0xff, 0xff, 0x98, 0xfa, 0xff, 0xff, 0x0f, 0x00, 0x00, 0x00,
  0x4d, 0x4c, 0x49, 0x52, 0x20, 0x43, 0x6f, 0x6e, 0x76, 0x65, 0x72, 0x74,
  0x65, 0x64, 0x2e, 0x00, 0x01, 0x00, 0x00, 0x00, 0x14, 0x00, 0x00, 0x00,
  0x00, 0x00, 0x0e, 0x00, 0x18, 0x00, 0x14, 0x00, 0x10, 0x00, 0x0c, 0x00,
  0x08, 0x00, 0x04, 0x00, 0x0e, 0x00, 0x00, 0x00, 0x14, 0x00, 0x00, 0x00,
  0x1c, 0x00, 0x00, 0x00, 0x08, 0x01, 0x00, 0x00, 0x0c, 0x01, 0x00, 0x00,
  0x10, 0x01, 0x00, 0x00, 0x04, 0x00, 0x00, 0x00, 0x6d, 0x61, 0x69, 0x6e,
  0x00, 0x00, 0x00, 0x00, 0x04, 0x00, 0x00, 0x00, 0xb0, 0x00, 0x00, 0x00,
  0x68, 0x00, 0x00, 0x00, 0x34, 0x00, 0x00, 0x00, 0x10, 0x00, 0x00, 0x00,
  0x00, 0x00, 0x0a, 0x00, 0x10, 0x00, 0x0c, 0x00, 0x08, 0x00, 0x04, 0x00,
  0x0a, 0x00, 0x00, 0x00, 0x0c, 0x00, 0x00, 0x00, 0x10, 0x00, 0x00, 0x00,
  0x01, 0x00, 0x00, 0x00, 0x01, 0x00, 0x00, 0x00, 0x0a, 0x00, 0x00, 0x00,
  0x01, 0x00, 0x00, 0x00, 0x09, 0x00, 0x00, 0x00, 0x9a, 0xff, 0xff, 0xff,
  0x10, 0x00, 0x00, 0x00, 0x00, 0x00, 0x00, 0x08, 0x0c, 0x00, 0x00, 0x00,
  0x10, 0x00, 0x00, 0x00, 0x40, 0xfb, 0xff, 0xff, 0x01, 0x00, 0x00, 0x00,
  0x09, 0x00, 0x00, 0x00, 0x03, 0x00, 0x00, 0x00, 0x08, 0x00, 0x00, 0x00,
  0x01, 0x00, 0x00, 0x00, 0x03, 0x00, 0x00, 0x00, 0xca, 0xff, 0xff, 0xff,
  0x10, 0x00, 0x00, 0x00, 0x00, 0x00, 0x00, 0x08, 0x10, 0x00, 0x00, 0x00,
  0x14, 0x00, 0x00, 0x00, 0xba, 0xff, 0xff, 0xff, 0x00, 0x00, 0x00, 0x01,
  0x01, 0x00, 0x00, 0x00, 0x08, 0x00, 0x00, 0x00, 0x03, 0x00, 0x00, 0x00,
  0x07, 0x00, 0x00, 0x00, 0x02, 0x00, 0x00, 0x00, 0x04, 0x00, 0x00, 0x00,
  0x00, 0x00, 0x0e, 0x00, 0x16, 0x00, 0x00, 0x00, 0x10, 0x00, 0x0c, 0x00,
  0x0b, 0x00, 0x04, 0x00, 0x0e, 0x00, 0x00, 0x00, 0x18, 0x00, 0x00, 0x00,
  0x00, 0x00, 0x00, 0x08, 0x18, 0x00, 0x00, 0x00, 0x1c, 0x00, 0x00, 0x00,
  0x00, 0x00, 0x06, 0x00, 0x08, 0x00, 0x07, 0x00, 0x06, 0x00, 0x00, 0x00,
  0x00, 0x00, 0x00, 0x01, 0x01, 0x00, 0x00, 0x00, 0x07, 0x00, 0x00, 0x00,
  0x03, 0x00, 0x00, 0x00, 0x00, 0x00, 0x00, 0x00, 0x06, 0x00, 0x00, 0x00,
  0x05, 0x00, 0x00, 0x00, 0x01, 0x00, 0x00, 0x00, 0x0a, 0x00, 0x00, 0x00,
  0x01, 0x00, 0x00, 0x00, 0x00, 0x00, 0x00, 0x00, 0x0b, 0x00, 0x00, 0x00,
  0xe8, 0x03, 0x00, 0x00, 0x90, 0x03, 0x00, 0x00, 0x38, 0x03, 0x00, 0x00,
  0xfc, 0x02, 0x00, 0x00, 0xa4, 0x02, 0x00, 0x00, 0x50, 0x02, 0x00, 0x00,
  0x04, 0x02, 0x00, 0x00, 0x74, 0x01, 0x00, 0x00, 0xdc, 0x00, 0x00, 0x00,
  0x60, 0x00, 0x00, 0x00, 0x04, 0x00, 0x00, 0x00, 0x5a, 0xfc, 0xff, 0xff,
  0x00, 0x00, 0x00, 0x01, 0x14, 0x00, 0x00, 0x00, 0x1c, 0x00, 0x00, 0x00,
  0x1c, 0x00, 0x00, 0x00, 0x0b, 0x00, 0x00, 0x00, 0x34, 0x00, 0x00, 0x00,
  0x02, 0x00, 0x00, 0x00, 0xff, 0xff, 0xff, 0xff, 0x01, 0x00, 0x00, 0x00,
  0x44, 0xfc, 0xff, 0xff, 0x1b, 0x00, 0x00, 0x00, 0x53, 0x74, 0x61, 0x74,
  0x65, 0x66, 0x75, 0x6c, 0x50, 0x61, 0x72, 0x74, 0x69, 0x74, 0x69, 0x6f,
  0x6e, 0x65, 0x64, 0x43, 0x61, 0x6c, 0x6c, 0x5f, 0x31, 0x3a, 0x30, 0x00,
  0x02, 0x00, 0x00, 0x00, 0x01, 0x00, 0x00, 0x00, 0x01, 0x00, 0x00, 0x00,
  0xb2, 0xfc, 0xff, 0xff, 0x00, 0x00, 0x00, 0x01, 0x14, 0x00, 0x00, 0x00,
  0x1c, 0x00, 0x00, 0x00, 0x1c, 0x00, 0x00, 0x00, 0x0a, 0x00, 0x00, 0x00,
  0x54, 0x00, 0x00, 0x00, 0x02, 0x00, 0x00, 0x00, 0xff, 0xff, 0xff, 0xff,
  0x01, 0x00, 0x00, 0x00, 0x9c, 0xfc, 0xff, 0xff, 0x38, 0x00, 0x00, 0x00,
  0x73, 0x65, 0x71, 0x75, 0x65, 0x6e, 0x74, 0x69, 0x61, 0x6c, 0x5f, 0x31,
  0x2f, 0x64, 0x65, 0x6e, 0x73, 0x65, 0x5f, 0x32, 0x5f, 0x31, 0x2f, 0x4d,
  0x61, 0x74, 0x4d, 0x75, 0x6c, 0x3b, 0x73, 0x65, 0x71, 0x75, 0x65, 0x6e,
  0x74, 0x69, 0x61, 0x6c, 0x5f, 0x31, 0x2f, 0x64, 0x65, 0x6e, 0x73, 0x65,
  0x5f, 0x32, 0x5f, 0x31, 0x2f, 0x41, 0x64, 0x64, 0x00, 0x00, 0x00, 0x00,
  0x02, 0x00, 0x00, 0x00, 0x01, 0x00, 0x00, 0x00, 0x01, 0x00, 0x00, 0x00,
  0x2a, 0xfd, 0xff, 0xff, 0x00, 0x00, 0x00, 0x01, 0x14, 0x00, 0x00, 0x00,
  0x1c, 0x00, 0x00, 0x00, 0x1c, 0x00, 0x00, 0x00, 0x09, 0x00, 0x00, 0x00,
  0x70, 0x00, 0x00, 0x00, 0x02, 0x00, 0x00, 0x00, 0xff, 0xff, 0xff, 0xff,
  0x0f, 0x00, 0x00, 0x00, 0x14, 0xfd, 0xff, 0xff, 0x54, 0x00, 0x00, 0x00,
  0x73, 0x65, 0x71, 0x75, 0x65, 0x6e, 0x74, 0x69, 0x61, 0x6c, 0x5f, 0x31,
  0x2f, 0x64, 0x65, 0x6e, 0x73, 0x65, 0x5f, 0x31, 0x5f, 0x32, 0x2f, 0x4d,
  0x61, 0x74, 0x4d, 0x75, 0x6c, 0x3b, 0x73, 0x65, 0x71, 0x75, 0x65, 0x6e,
  0x74, 0x69, 0x61, 0x6c, 0x5f, 0x31, 0x2f, 0x64, 0x65, 0x6e, 0x73, 0x65,
  0x5f, 0x31, 0x5f, 0x32, 0x2f, 0x52, 0x65, 0x6c, 0x75, 0x3b, 0x73, 0x65,
  0x71, 0x75, 0x65, 0x6e, 0x74, 0x69, 0x61, 0x6c, 0x5f, 0x31, 0x2f, 0x64,
  0x65, 0x6e, 0x73, 0x65, 0x5f, 0x31, 0x5f, 0x32, 0x2f, 0x41, 0x64, 0x64,
  0x00, 0x00, 0x00, 0x00, 0x02, 0x00, 0x00, 0x00, 0x01, 0x00, 0x00, 0x00,
  0x0f, 0x00, 0x00, 0x00, 0xbe, 0xfd, 0xff, 0xff, 0x00, 0x00, 0x00, 0x01,
  0x14, 0x00, 0x00, 0x00, 0x1c, 0x00, 0x00, 0x00, 0x1c, 0x00, 0x00, 0x00,
  0x08, 0x00, 0x00, 0x00, 0x68, 0x00, 0x00, 0x00, 0x02, 0x00, 0x00, 0x00,
  0xff, 0xff, 0xff, 0xff, 0x1e, 0x00, 0x00, 0x00, 0xa8, 0xfd, 0xff, 0xff,
  0x4e, 0x00, 0x00, 0x00, 0x73, 0x65, 0x71, 0x75, 0x65, 0x6e, 0x74, 0x69,
  0x61, 0x6c, 0x5f, 0x31, 0x2f, 0x64, 0x65, 0x6e, 0x73, 0x65, 0x5f, 0x31,
  0x2f, 0x4d, 0x61, 0x74, 0x4d, 0x75, 0x6c, 0x3b, 0x73, 0x65, 0x71, 0x75,
  0x65, 0x6e, 0x74, 0x69, 0x61, 0x6c, 0x5f, 0x31, 0x2f, 0x64, 0x65, 0x6e,
  0x73, 0x65, 0x5f, 0x31, 0x2f, 0x52, 0x65, 0x6c, 0x75, 0x3b, 0x73, 0x65,
  0x71, 0x75, 0x65, 0x6e, 0x74, 0x69, 0x61, 0x6c, 0x5f, 0x31, 0x2f, 0x64,
  0x65, 0x6e, 0x73, 0x65, 0x5f, 0x31, 0x2f, 0x41, 0x64, 0x64, 0x00, 0x00,
  0x02, 0x00, 0x00, 0x00, 0x01, 0x00, 0x00, 0x00, 0x1e, 0x00, 0x00, 0x00,
  0x9e, 0xfe, 0xff, 0xff, 0x00, 0x00, 0x00, 0x01, 0x10, 0x00, 0x00, 0x00,
  0x10, 0x00, 0x00, 0x00, 0x07, 0x00, 0x00, 0x00, 0x28, 0x00, 0x00, 0x00,
  0x24, 0xfe, 0xff, 0xff, 0x1b, 0x00, 0x00, 0x00, 0x73, 0x65, 0x71, 0x75,
  0x65, 0x6e, 0x74, 0x69, 0x61, 0x6c, 0x5f, 0x31, 0x2f, 0x64, 0x65, 0x6e,
  0x73, 0x65, 0x5f, 0x31, 0x2f, 0x4d, 0x61, 0x74, 0x4d, 0x75, 0x6c, 0x00,
  0x02, 0x00, 0x00, 0x00, 0x1e, 0x00, 0x00, 0x00, 0x02, 0x00, 0x00, 0x00,
  0xe6, 0xfe, 0xff, 0xff, 0x00, 0x00, 0x00, 0x01, 0x10, 0x00, 0x00, 0x00,
  0x10, 0x00, 0x00, 0x00, 0x06, 0x00, 0x00, 0x00, 0x34, 0x00, 0x00, 0x00,
  0x6c, 0xfe, 0xff, 0xff, 0x27, 0x00, 0x00, 0x00, 0x73, 0x65, 0x71, 0x75,
  0x65, 0x6e, 0x74, 0x69, 0x61, 0x6c, 0x5f, 0x31, 0x2f, 0x64, 0x65, 0x6e,
  0x73, 0x65, 0x5f, 0x31, 0x2f, 0x41, 0x64, 0x64, 0x2f, 0x52, 0x65, 0x61,
  0x64, 0x56, 0x61, 0x72, 0x69, 0x61, 0x62, 0x6c, 0x65, 0x4f, 0x70, 0x00,
  0x01, 0x00, 0x00, 0x00, 0x1e, 0x00, 0x00, 0x00, 0x36, 0xff, 0xff, 0xff,
  0x00, 0x00, 0x00, 0x01, 0x10, 0x00, 0x00, 0x00, 0x10, 0x00, 0x00, 0x00,
  0x05, 0x00, 0x00, 0x00, 0x38, 0x00, 0x00, 0x00, 0xbc, 0xfe, 0xff, 0xff,
  0x29, 0x00, 0x00, 0x00, 0x73, 0x65, 0x71, 0x75, 0x65, 0x6e, 0x74, 0x69,
  0x61, 0x6c, 0x5f, 0x31, 0x2f, 0x64, 0x65, 0x6e, 0x73, 0x65, 0x5f, 0x31,
  0x5f, 0x32, 0x2f, 0x41, 0x64, 0x64, 0x2f, 0x52, 0x65, 0x61, 0x64, 0x56,
  0x61, 0x72, 0x69, 0x61, 0x62, 0x6c, 0x65, 0x4f, 0x70, 0x00, 0x00, 0x00,
  0x01, 0x00, 0x00, 0x00, 0x0f, 0x00, 0x00, 0x00, 0x8a, 0xff, 0xff, 0xff,
  0x00, 0x00, 0x00, 0x01, 0x10, 0x00, 0x00, 0x00, 0x10, 0x00, 0x00, 0x00,
  0x04, 0x00, 0x00, 0x00, 0x1c, 0x00, 0x00, 0x00, 0x10, 0xff, 0xff, 0xff,
  0x0f, 0x00, 0x00, 0x00, 0x61, 0x72, 0x69, 0x74, 0x68, 0x2e, 0x63, 0x6f,
  0x6e, 0x73, 0x74, 0x61, 0x6e, 0x74, 0x32, 0x00, 0x01, 0x00, 0x00, 0x00,
  0x01, 0x00, 0x00, 0x00, 0xc2, 0xff, 0xff, 0xff, 0x00, 0x00, 0x00, 0x01,
  0x10, 0x00, 0x00, 0x00, 0x10, 0x00, 0x00, 0x00, 0x03, 0x00, 0x00, 0x00,
  0x1c, 0x00, 0x00, 0x00, 0x48, 0xff, 0xff, 0xff, 0x0f, 0x00, 0x00, 0x00,
  0x61, 0x72, 0x69, 0x74, 0x68, 0x2e, 0x63, 0x6f, 0x6e, 0x73, 0x74, 0x61,
  0x6e, 0x74, 0x31, 0x00, 0x02, 0x00, 0x00, 0x00, 0x0f, 0x00, 0x00, 0x00,
  0x1e, 0x00, 0x00, 0x00, 0x00, 0x00, 0x16, 0x00, 0x18, 0x00, 0x14, 0x00,
  0x00, 0x00, 0x10, 0x00, 0x0c, 0x00, 0x08, 0x00, 0x00, 0x00, 0x00, 0x00,
  0x00, 0x00, 0x07, 0x00, 0x16, 0x00, 0x00, 0x00, 0x00, 0x00, 0x00, 0x01,
  0x10, 0x00, 0x00, 0x00, 0x10, 0x00, 0x00, 0x00, 0x02, 0x00, 0x00, 0x00,
  0x1c, 0x00, 0x00, 0x00, 0x9c, 0xff, 0xff, 0xff, 0x0e, 0x00, 0x00, 0x00,
  0x61, 0x72, 0x69, 0x74, 0x68, 0x2e, 0x63, 0x6f, 0x6e, 0x73, 0x74, 0x61,
  0x6e, 0x74, 0x00, 0x00, 0x02, 0x00, 0x00, 0x00, 0x01, 0x00, 0x00, 0x00,
  0x0f, 0x00, 0x00, 0x00, 0x00, 0x00, 0x16, 0x00, 0x1c, 0x00, 0x18, 0x00,
  0x00, 0x00, 0x14, 0x00, 0x10, 0x00, 0x0c, 0x00, 0x00, 0x00, 0x00, 0x00,
  0x08, 0x00, 0x07, 0x00, 0x16, 0x00, 0x00, 0x00, 0x00, 0x00, 0x00, 0x01,
  0x14, 0x00, 0x00, 0x00, 0x20, 0x00, 0x00, 0x00, 0x20, 0x00, 0x00, 0x00,
  0x01, 0x00, 0x00, 0x00, 0x3c, 0x00, 0x00, 0x00, 0x02, 0x00, 0x00, 0x00,
  0xff, 0xff, 0xff, 0xff, 0x02, 0x00, 0x00, 0x00, 0x04, 0x00, 0x04, 0x00,
  0x04, 0x00, 0x00, 0x00, 0x1e, 0x00, 0x00, 0x00, 0x73, 0x65, 0x72, 0x76,
  0x69, 0x6e, 0x67, 0x5f, 0x64, 0x65, 0x66, 0x61, 0x75, 0x6c, 0x74, 0x5f,
  0x6b, 0x65, 0x72, 0x61, 0x73, 0x5f, 0x74, 0x65, 0x6e, 0x73, 0x6f, 0x72,
  0x3a, 0x30, 0x00, 0x00, 0x02, 0x00, 0x00, 0x00, 0x01, 0x00, 0x00, 0x00,
  0x02, 0x00, 0x00, 0x00, 0x02, 0x00, 0x00, 0x00, 0x20, 0x00, 0x00, 0x00,
  0x04, 0x00, 0x00, 0x00, 0xf4, 0xff, 0xff, 0xff, 0x0e, 0x00, 0x00, 0x00,
  0x00, 0x00, 0x00, 0x0e, 0x0c, 0x00, 0x0c, 0x00, 0x0b, 0x00, 0x00, 0x00,
  0x00, 0x00, 0x04, 0x00, 0x0c, 0x00, 0x00, 0x00, 0x09, 0x00, 0x00, 0x00,
  0x00, 0x00, 0x00, 0x09
};
unsigned int model_tflite_len = 4336;
